{
  "version": "1.0",
  "truncation": {
    "direction": "Right",
    "max_length": 512,
    "strategy": "LongestFirst",
    "stride": 0
  },
  "padding": {
    "strategy": {
      "Fixed": 512
    },
    "direction": "Right",
    "pad_to_multiple_of": null,
    "pad_id": 2,
    "pad_type_id": 0,
    "pad_token": "[PAD]"
  },
  "added_tokens": [
    {
      "id": 0,
      "content": "[UNK]",
      "single_word": false,
      "lstrip": false,
      "rstrip": false,
      "normalized": false,
      "special": true
    },
    {
      "id": 1,
      "content": "[SEP]",
      "single_word": false,
      "lstrip": false,
      "rstrip": false,
      "normalized": false,
      "special": true
    },
    {
      "id": 2,
      "content": "[PAD]",
      "single_word": false,
      "lstrip": false,
      "rstrip": false,
      "normalized": false,
      "special": true
    },
    {
      "id": 3,
      "content": "[CLS]",
      "single_word": false,
      "lstrip": false,
      "rstrip": false,
      "normalized": false,
      "special": true
    },
    {
      "id": 4,
      "content": "[MASK]",
      "single_word": false,
      "lstrip": false,
      "rstrip": false,
      "normalized": false,
      "special": true
    }
  ],
  "normalizer": {
    "type": "BertNormalizer",
    "clean_text": true,
    "handle_chinese_chars": true,
    "strip_accents": null,
    "lowercase": true
  },
  "pre_tokenizer": {
    "type": "BertPreTokenizer"
  },
  "post_processor": {
    "type": "TemplateProcessing",
    "single": [
      {
        "SpecialToken": {
          "id": "[CLS]",
          "type_id": 0
        }
      },
      {
        "Sequence": {
          "id": "A",
          "type_id": 0
        }
      },
      {
        "SpecialToken": {
          "id": "[SEP]",
          "type_id": 0
        }
      }
    ],
    "pair": [
      {
        "SpecialToken": {
          "id": "[CLS]",
          "type_id": 0
        }
      },
      {
        "Sequence": {
          "id": "A",
          "type_id": 0
        }
      },
      {
        "SpecialToken": {
          "id": "[SEP]",
          "type_id": 0
        }
      },
      {
        "Sequence": {
          "id": "B",
          "type_id": 1
        }
      },
      {
        "SpecialToken": {
          "id": "[SEP]",
          "type_id": 1
        }
      }
    ],
    "special_tokens": {
      "[CLS]": {
        "id": "[CLS]",
        "ids": [
          3
        ],
        "tokens": [
          "[CLS]"
        ]
      },
      "[SEP]": {
        "id": "[SEP]",
        "ids": [
          1
        ],
        "tokens": [
          "[SEP]"
        ]
      }
    }
  },
  "decoder": {
    "type": "WordPiece",
    "prefix": "##",
    "cleanup": true
  },
  "model": {
    "type": "WordPiece",
    "unk_token": "[UNK]",
    "continuing_subword_prefix": "##",
    "max_input_chars_per_word": 100,
    "vocab": {
      "[UNK]": 0,
      "[SEP]": 1,
      "[PAD]": 2,
      "[CLS]": 3,
      "[MASK]": 4,
      "!": 5,
      "\"": 6,
      "#": 7,
      "$": 8,
      "%": 9,
      "&": 10,
      "(": 11,
      ")": 12,
      "*": 13,
      "+": 14,
      ",": 15,
      "-": 16,
      ".": 17,
      "/": 18,
      "0": 19,
      "1": 20,
      "2": 21,
      "3": 22,
      "4": 23,
      "5": 24,
      "6": 25,
      "7": 26,
      "8": 27,
      "9": 28,
      ":": 29,
      ";": 30,
      "=": 31,
      "?": 32,
      "@": 33,
      "[": 34,
      "\\": 35,
      "]": 36,
      "^": 37,
      "_": 38,
      "`": 39,
      "a": 40,
      "b": 41,
      "c": 42,
      "d": 43,
      "e": 44,
      "f": 45,
      "g": 46,
      "h": 47,
      "i": 48,
      "j": 49,
      "k": 50,
      "l": 51,
      "m": 52,
      "n": 53,
      "o": 54,
      "p": 55,
      "q": 56,
      "r": 57,
      "s": 58,
      "t": 59,
      "u": 60,
      "v": 61,
      "w": 62,
      "x": 63,
      "y": 64,
      "z": 65,
      "{": 66,
      "}": 67,
      "~": 68,
      "¡": 69,
      "£": 70,
      "¥": 71,
      "§": 72,
      "«": 73,
      "¬": 74,
      "®": 75,
      "°": 76,
      "±": 77,
      "²": 78,
      "³": 79,
      "´": 80,
      "µ": 81,
      "·": 82,
      "¹": 83,
      "º": 84,
      "»": 85,
      "¼": 86,
      "½": 87,
      "¾": 88,
      "×": 89,
      "ß": 90,
      "æ": 91,
      "ð": 92,
      "÷": 93,
      "ø": 94,
      "þ": 95,
      "đ": 96,
      "ħ": 97,
      "ı": 98,
      "ł": 99,
      "ŋ": 100,
      "œ": 101,
      "ƒ": 102,
      "ɐ": 103,
      "ɑ": 104,
      "ɒ": 105,
      "ɔ": 106,
      "ə": 107,
      "ɛ": 108,
      "ɡ": 109,
      "ɪ": 110,
      "ʁ": 111,
      "ʃ": 112,
      "ʊ": 113,
      "ʒ": 114,
      "ʔ": 115,
      "ʰ": 116,
      "ʲ": 117,
      "ʻ": 118,
      "ʼ": 119,
      "ʾ": 120,
      "ʿ": 121,
      "ˈ": 122,
      "ˌ": 123,
      "ː": 124,
      "˚": 125,
      "α": 126,
      "β": 127,
      "γ": 128,
      "δ": 129,
      "ε": 130,
      "ζ": 131,
      "η": 132,
      "θ": 133,
      "ι": 134,
      "κ": 135,
      "λ": 136,
      "μ": 137,
      "ν": 138,
      "ξ": 139,
      "ο": 140,
      "π": 141,
      "ρ": 142,
      "ς": 143,
      "σ": 144,
      "τ": 145,
      "υ": 146,
      "φ": 147,
      "χ": 148,
      "ψ": 149,
      "ω": 150,
      "а": 151,
      "б": 152,
      "в": 153,
      "г": 154,
      "д": 155,
      "е": 156,
      "ж": 157,
      "з": 158,
      "и": 159,
      "к": 160,
      "л": 161,
      "м": 162,
      "н": 163,
      "о": 164,
      "п": 165,
      "р": 166,
      "с": 167,
      "т": 168,
      "у": 169,
      "ф": 170,
      "х": 171,
      "ц": 172,
      "ч": 173,
      "ш": 174,
      "щ": 175,
      "ъ": 176,
      "ы": 177,
      "ь": 178,
      "э": 179,
      "ю": 180,
      "я": 181,
      "і": 182,
      "ј": 183,
      "ћ": 184,
      "қ": 185,
      "ү": 186,
      "ә": 187,
      "ө": 188,
      "ա": 189,
      "ե": 190,
      "ի": 191,
      "կ": 192,
      "հ": 193,
      "մ": 194,
      "յ": 195,
      "ն": 196,
      "ո": 197,
      "ս": 198,
      "տ": 199,
      "ր": 200,
      "ւ": 201,
      "א": 202,
      "ב": 203,
      "ג": 204,
      "ד": 205,
      "ה": 206,
      "ו": 207,
      "ז": 208,
      "ח": 209,
      "ט": 210,
      "י": 211,
      "ך": 212,
      "כ": 213,
      "ל": 214,
      "ם": 215,
      "מ": 216,
      "ן": 217,
      "נ": 218,
      "ס": 219,
      "ע": 220,
      "פ": 221,
      "ץ": 222,
      "צ": 223,
      "ק": 224,
      "ר": 225,
      "ש": 226,
      "ת": 227,
      "،": 228,
      "ء": 229,
      "ا": 230,
      "ب": 231,
      "ة": 232,
      "ت": 233,
      "ث": 234,
      "ج": 235,
      "ح": 236,
      "خ": 237,
      "د": 238,
      "ذ": 239,
      "ر": 240,
      "ز": 241,
      "س": 242,
      "ش": 243,
      "ص": 244,
      "ض": 245,
      "ط": 246,
      "ظ": 247,
      "ع": 248,
      "غ": 249,
      "ـ": 250,
      "ف": 251,
      "ق": 252,
      "ك": 253,
      "ل": 254,
      "م": 255,
      "ن": 256,
      "ه": 257,
      "و": 258,
      "ى": 259,
      "ي": 260,
      "پ": 261,
      "چ": 262,
      "ڠ": 263,
      "ڤ": 264,
      "ک": 265,
      "گ": 266,
      "ہ": 267,
      "ی": 268,
      "ܐ": 269,
      "अ": 270,
      "आ": 271,
      "उ": 272,
      "क": 273,
      "ग": 274,
      "च": 275,
      "ज": 276,
      "ट": 277,
      "ड": 278,
      "ण": 279,
      "त": 280,
      "थ": 281,
      "द": 282,
      "ध": 283,
      "न": 284,
      "प": 285,
      "ब": 286,
      "भ": 287,
      "म": 288,
      "य": 289,
      "र": 290,
      "ल": 291,
      "व": 292,
      "श": 293,
      "ष": 294,
      "स": 295,
      "ह": 296,
      "ा": 297,
      "ि": 298,
      "ी": 299,
      "ो": 300,
      "ক": 301,
      "গ": 302,
      "চ": 303,
      "জ": 304,
      "ত": 305,
      "দ": 306,
      "ন": 307,
      "প": 308,
      "ব": 309,
      "ম": 310,
      "য": 311,
      "র": 312,
      "ল": 313,
      "শ": 314,
      "স": 315,
      "হ": 316,
      "া": 317,
      "ি": 318,
      "ী": 319,
      "ে": 320,
      "ਾ": 321,
      "க": 322,
      "ச": 323,
      "த": 324,
      "ன": 325,
      "ப": 326,
      "ம": 327,
      "ய": 328,
      "ர": 329,
      "ல": 330,
      "ா": 331,
      "ி": 332,
      "ு": 333,
      "ం": 334,
      "క": 335,
      "త": 336,
      "న": 337,
      "ర": 338,
      "ల": 339,
      "ు": 340,
      "ರ": 341,
      "ಾ": 342,
      "ා": 343,
      "ก": 344,
      "ข": 345,
      "ค": 346,
      "ง": 347,
      "จ": 348,
      "ช": 349,
      "ด": 350,
      "ต": 351,
      "ท": 352,
      "ธ": 353,
      "น": 354,
      "บ": 355,
      "ป": 356,
      "พ": 357,
      "ม": 358,
      "ย": 359,
      "ร": 360,
      "ล": 361,
      "ว": 362,
      "ศ": 363,
      "ส": 364,
      "ห": 365,
      "อ": 366,
      "ะ": 367,
      "า": 368,
      "เ": 369,
      "แ": 370,
      "โ": 371,
      "ไ": 372,
      "་": 373,
      "བ": 374,
      "ར": 375,
      "ས": 376,
      "မ": 377,
      "ာ": 378,
      "း": 379,
      "ა": 380,
      "ე": 381,
      "ვ": 382,
      "თ": 383,
      "ი": 384,
      "ლ": 385,
      "მ": 386,
      "ო": 387,
      "რ": 388,
      "ს": 389,
      "ᄀ": 390,
      "ᄁ": 391,
      "ᄂ": 392,
      "ᄃ": 393,
      "ᄄ": 394,
      "ᄅ": 395,
      "ᄆ": 396,
      "ᄇ": 397,
      "ᄈ": 398,
      "ᄉ": 399,
      "ᄊ": 400,
      "ᄋ": 401,
      "ᄌ": 402,
      "ᄎ": 403,
      "ᄏ": 404,
      "ᄐ": 405,
      "ᄑ": 406,
      "ᄒ": 407,
      "ᅡ": 408,
      "ᅢ": 409,
      "ᅣ": 410,
      "ᅥ": 411,
      "ᅦ": 412,
      "ᅧ": 413,
      "ᅨ": 414,
      "ᅩ": 415,
      "ᅪ": 416,
      "ᅬ": 417,
      "ᅭ": 418,
      "ᅮ": 419,
      "ᅯ": 420,
      "ᅱ": 421,
      "ᅲ": 422,
      "ᅳ": 423,
      "ᅴ": 424,
      "ᅵ": 425,
      "ᆨ": 426,
      "ᆫ": 427,
      "ᆯ": 428,
      "ᆷ": 429,
      "ᆸ": 430,
      "ᆺ": 431,
      "ᆻ": 432,
      "ᆼ": 433,
      "ក": 434,
      "រ": 435,
      "ា": 436,
      "ᨅ": 437,
      "ᨆ": 438,
      "ᨈ": 439,
      "ᨑ": 440,
      "ᨒ": 441,
      "ᨔ": 442,
      "ᨕ": 443,
      "ᨙ": 444,
      "ᨚ": 445,
      "ᴡ": 446,
      "‐": 447,
      "‑": 448,
      "–": 449,
      "—": 450,
      "―": 451,
      "‖": 452,
      "‘": 453,
      "’": 454,
      "“": 455,
      "”": 456,
      "„": 457,
      "‟": 458,
      "†": 459,
      "‡": 460,
      "•": 461,
      "…": 462,
      "‰": 463,
      "′": 464,
      "″": 465,
      "‹": 466,
      "›": 467,
      "⁄": 468,
      "⁰": 469,
      "₩": 470,
      "€": 471,
      "₱": 472,
      "₹": 473,
      "℃": 474,
      "ℓ": 475,
      "™": 476,
      "→": 477,
      "−": 478,
      "√": 479,
      "∞": 480,
      "≈": 481,
      "≡": 482,
      "≤": 483,
      "≥": 484,
      "⋅": 485,
      "▪": 486,
      "●": 487,
      "◦": 488,
      "★": 489,
      "☆": 490,
      "♭": 491,
      "⟨": 492,
      "⟩": 493,
      "ⴰ": 494,
      "、": 495,
      "。": 496,
      "〈": 497,
      "〉": 498,
      "》": 499,
      "「": 500,
      "」": 501,
      "〜": 502,
      "あ": 503,
      "い": 504,
      "う": 505,
      "え": 506,
      "お": 507,
      "か": 508,
      "き": 509,
      "く": 510,
      "け": 511,
      "こ": 512,
      "さ": 513,
      "し": 514,
      "す": 515,
      "せ": 516,
      "そ": 517,
      "た": 518,
      "ち": 519,
      "っ": 520,
      "つ": 521,
      "て": 522,
      "と": 523,
      "な": 524,
      "に": 525,
      "ね": 526,
      "の": 527,
      "は": 528,
      "ひ": 529,
      "ふ": 530,
      "へ": 531,
      "ほ": 532,
      "ま": 533,
      "み": 534,
      "め": 535,
      "も": 536,
      "ゃ": 537,
      "や": 538,
      "よ": 539,
      "ら": 540,
      "り": 541,
      "る": 542,
      "れ": 543,
      "ろ": 544,
      "わ": 545,
      "を": 546,
      "ん": 547,
      "ア": 548,
      "ィ": 549,
      "イ": 550,
      "ウ": 551,
      "ェ": 552,
      "エ": 553,
      "オ": 554,
      "カ": 555,
      "キ": 556,
      "ク": 557,
      "ケ": 558,
      "コ": 559,
      "サ": 560,
      "シ": 561,
      "ス": 562,
      "セ": 563,
      "ソ": 564,
      "タ": 565,
      "チ": 566,
      "ッ": 567,
      "ツ": 568,
      "テ": 569,
      "ト": 570,
      "ナ": 571,
      "ニ": 572,
      "ハ": 573,
      "ヒ": 574,
      "フ": 575,
      "ヘ": 576,
      "ホ": 577,
      "マ": 578,
      "ミ": 579,
      "ム": 580,
      "メ": 581,
      "モ": 582,
      "ャ": 583,
      "ヤ": 584,
      "ュ": 585,
      "ョ": 586,
      "ラ": 587,
      "リ": 588,
      "ル": 589,
      "レ": 590,
      "ロ": 591,
      "ワ": 592,
      "ン": 593,
      "・": 594,
      "ー": 595,
      "一": 596,
      "丁": 597,
      "七": 598,
      "万": 599,
      "三": 600,
      "上": 601,
      "下": 602,
      "不": 603,
      "世": 604,
      "东": 605,
      "中": 606,
      "丹": 607,
      "主": 608,
      "之": 609,
      "九": 610,
      "事": 611,
      "二": 612,
      "五": 613,
      "井": 614,
      "京": 615,
      "人": 616,
      "仁": 617,
      "今": 618,
      "仙": 619,
      "代": 620,
      "令": 621,
      "仲": 622,
      "伊": 623,
      "会": 624,
      "伯": 625,
      "何": 626,
      "佛": 627,
      "你": 628,
      "使": 629,
      "侯": 630,
      "保": 631,
      "信": 632,
      "偵": 633,
      "傳": 634,
      "僕": 635,
      "元": 636,
      "先": 637,
      "光": 638,
      "全": 639,
      "八": 640,
      "公": 641,
      "六": 642,
      "共": 643,
      "兵": 644,
      "内": 645,
      "军": 646,
      "出": 647,
      "分": 648,
      "利": 649,
      "劉": 650,
      "力": 651,
      "加": 652,
      "動": 653,
      "勝": 654,
      "化": 655,
      "北": 656,
      "区": 657,
      "區": 658,
      "十": 659,
      "千": 660,
      "华": 661,
      "南": 662,
      "博": 663,
      "原": 664,
      "友": 665,
      "口": 666,
      "古": 667,
      "台": 668,
      "史": 669,
      "号": 670,
      "司": 671,
      "合": 672,
      "吉": 673,
      "同": 674,
      "名": 675,
      "后": 676,
      "君": 677,
      "吳": 678,
      "周": 679,
      "命": 680,
      "和": 681,
      "唐": 682,
      "商": 683,
      "四": 684,
      "回": 685,
      "国": 686,
      "國": 687,
      "園": 688,
      "圖": 689,
      "土": 690,
      "地": 691,
      "城": 692,
      "堂": 693,
      "場": 694,
      "士": 695,
      "壽": 696,
      "夏": 697,
      "外": 698,
      "多": 699,
      "大": 700,
      "天": 701,
      "太": 702,
      "夫": 703,
      "女": 704,
      "如": 705,
      "妃": 706,
      "始": 707,
      "姬": 708,
      "威": 709,
      "媛": 710,
      "子": 711,
      "字": 712,
      "孝": 713,
      "学": 714,
      "孫": 715,
      "學": 716,
      "宇": 717,
      "安": 718,
      "宋": 719,
      "宗": 720,
      "官": 721,
      "定": 722,
      "宣": 723,
      "宮": 724,
      "家": 725,
      "宿": 726,
      "富": 727,
      "寧": 728,
      "寶": 729,
      "寺": 730,
      "将": 731,
      "將": 732,
      "尊": 733,
      "小": 734,
      "少": 735,
      "尚": 736,
      "尼": 737,
      "居": 738,
      "屋": 739,
      "山": 740,
      "岳": 741,
      "島": 742,
      "川": 743,
      "州": 744,
      "工": 745,
      "左": 746,
      "市": 747,
      "布": 748,
      "帝": 749,
      "師": 750,
      "常": 751,
      "平": 752,
      "年": 753,
      "府": 754,
      "康": 755,
      "廣": 756,
      "延": 757,
      "建": 758,
      "式": 759,
      "张": 760,
      "張": 761,
      "後": 762,
      "徐": 763,
      "御": 764,
      "德": 765,
      "心": 766,
      "志": 767,
      "忠": 768,
      "思": 769,
      "愛": 770,
      "慶": 771,
      "成": 772,
      "我": 773,
      "戦": 774,
      "戰": 775,
      "房": 776,
      "所": 777,
      "手": 778,
      "探": 779,
      "摩": 780,
      "政": 781,
      "教": 782,
      "敬": 783,
      "文": 784,
      "新": 785,
      "方": 786,
      "族": 787,
      "日": 788,
      "昌": 789,
      "明": 790,
      "星": 791,
      "春": 792,
      "昭": 793,
      "是": 794,
      "時": 795,
      "景": 796,
      "曲": 797,
      "書": 798,
      "曹": 799,
      "最": 800,
      "會": 801,
      "月": 802,
      "有": 803,
      "朝": 804,
      "木": 805,
      "本": 806,
      "朱": 807,
      "李": 808,
      "村": 809,
      "来": 810,
      "東": 811,
      "松": 812,
      "林": 813,
      "校": 814,
      "株": 815,
      "根": 816,
      "梁": 817,
      "楊": 818,
      "楚": 819,
      "業": 820,
      "極": 821,
      "樂": 822,
      "橋": 823,
      "機": 824,
      "歌": 825,
      "正": 826,
      "武": 827,
      "殿": 828,
      "比": 829,
      "氏": 830,
      "民": 831,
      "水": 832,
      "永": 833,
      "江": 834,
      "沙": 835,
      "河": 836,
      "治": 837,
      "泉": 838,
      "法": 839,
      "波": 840,
      "洋": 841,
      "洪": 842,
      "流": 843,
      "海": 844,
      "清": 845,
      "港": 846,
      "漢": 847,
      "灣": 848,
      "火": 849,
      "無": 850,
      "物": 851,
      "特": 852,
      "玄": 853,
      "玉": 854,
      "王": 855,
      "理": 856,
      "生": 857,
      "田": 858,
      "男": 859,
      "界": 860,
      "白": 861,
      "百": 862,
      "的": 863,
      "皇": 864,
      "目": 865,
      "直": 866,
      "相": 867,
      "真": 868,
      "知": 869,
      "石": 870,
      "社": 871,
      "祖": 872,
      "神": 873,
      "福": 874,
      "秀": 875,
      "秋": 876,
      "科": 877,
      "秦": 878,
      "空": 879,
      "立": 880,
      "章": 881,
      "第": 882,
      "等": 883,
      "節": 884,
      "紀": 885,
      "紫": 886,
      "經": 887,
      "縣": 888,
      "羅": 889,
      "美": 890,
      "義": 891,
      "老": 892,
      "者": 893,
      "聖": 894,
      "胡": 895,
      "臣": 896,
      "自": 897,
      "興": 898,
      "航": 899,
      "良": 900,
      "色": 901,
      "花": 902,
      "英": 903,
      "草": 904,
      "華": 905,
      "萬": 906,
      "葉": 907,
      "藤": 908,
      "虎": 909,
      "行": 910,
      "衛": 911,
      "西": 912,
      "見": 913,
      "親": 914,
      "言": 915,
      "記": 916,
      "許": 917,
      "話": 918,
      "語": 919,
      "谷": 920,
      "起": 921,
      "越": 922,
      "趙": 923,
      "路": 924,
      "軍": 925,
      "通": 926,
      "道": 927,
      "遠": 928,
      "那": 929,
      "郎": 930,
      "郡": 931,
      "部": 932,
      "郭": 933,
      "都": 934,
      "鄭": 935,
      "里": 936,
      "重": 937,
      "野": 938,
      "金": 939,
      "銀": 940,
      "镇": 941,
      "長": 942,
      "长": 943,
      "門": 944,
      "開": 945,
      "關": 946,
      "阳": 947,
      "阿": 948,
      "陈": 949,
      "限": 950,
      "院": 951,
      "陳": 952,
      "陵": 953,
      "陽": 954,
      "隆": 955,
      "雄": 956,
      "集": 957,
      "雪": 958,
      "雲": 959,
      "電": 960,
      "青": 961,
      "面": 962,
      "韓": 963,
      "音": 964,
      "頭": 965,
      "風": 966,
      "飛": 967,
      "食": 968,
      "香": 969,
      "馬": 970,
      "駅": 971,
      "高": 972,
      "鬼": 973,
      "魂": 974,
      "魏": 975,
      "黃": 976,
      "黄": 977,
      "龍": 978,
      "龙": 979,
      "ꦏ": 980,
      "ꦒ": 981,
      "ꦗ": 982,
      "ꦠ": 983,
      "ꦢ": 984,
      "ꦤ": 985,
      "ꦥ": 986,
      "ꦧ": 987,
      "ꦩ": 988,
      "ꦫ": 989,
      "ꦭ": 990,
      "ꦮ": 991,
      "ꦱ": 992,
      "ꦲ": 993,
      "ꦴ": 994,
      "ꦺ": 995,
      "꧀": 996,
      "ﷺ": 997,
      "！": 998,
      "（": 999,
      "）": 1000,
      "，": 1001,
      "：": 1002,
      "～": 1003,
      "￼": 1004,
      "##u": 1005,
      "##d": 1006,
      "##a": 1007,
      "##r": 1008,
      "##t": 1009,
      "##n": 1010,
      "##l": 1011,
      "##i": 1012,
      "##b": 1013,
      "##g": 1014,
      "##h": 1015,
      "##o": 1016,
      "##m": 1017,
      "##s": 1018,
      "##e": 1019,
      "##x": 1020,
      "##5": 1021,
      "##2": 1022,
      "##8": 1023,
      "##9": 1024,
      "##y": 1025,
      "##c": 1026,
      "##j": 1027,
      "##k": 1028,
      "##p": 1029,
      "##w": 1030,
      "##v": 1031,
      "##f": 1032,
      "##ي": 1033,
      "##ر": 1034,
      "##ك": 1035,
      "##ا": 1036,
      "##س": 1037,
      "##1": 1038,
      "##ל": 1039,
      "##ו": 1040,
      "##ן": 1041,
      "##α": 1042,
      "##ο": 1043,
      "##υ": 1044,
      "##τ": 1045,
      "##ζ": 1046,
      "##η": 1047,
      "##ς": 1048,
      "##z": 1049,
      "##6": 1050,
      "##ᅮ": 1051,
      "##ᆨ": 1052,
      "##4": 1053,
      "##q": 1054,
      "##ふ": 1055,
      "##く": 1056,
      "##צ": 1057,
      "##ר": 1058,
      "##ת": 1059,
      "##и": 1060,
      "##а": 1061,
      "##ц": 1062,
      "##н": 1063,
      "##т": 1064,
      "##0": 1065,
      "##3": 1066,
      "##7": 1067,
      "##ل": 1068,
      "##ح": 1069,
      "##و": 1070,
      "##ض": 1071,
      "##æ": 1072,
      "##ι": 1073,
      "##β": 1074,
      "##ε": 1075,
      "##ρ": 1076,
      "##δ": 1077,
      "##λ": 1078,
      "##ł": 1079,
      "##ø": 1080,
      "##ف": 1081,
      "##р": 1082,
      "##д": 1083,
      "##с": 1084,
      "##к": 1085,
      "##у": 1086,
      "##л": 1087,
      "##ч": 1088,
      "##ש": 1089,
      "##ה": 1090,
      "##ص": 1091,
      "##ب": 1092,
      "##ক": 1093,
      "##ᅥ": 1094,
      "##ல": 1095,
      "##ா": 1096,
      "##е": 1097,
      "##ћ": 1098,
      "##د": 1099,
      "##ز": 1100,
      "##ى": 1101,
      "##ে": 1102,
      "##া": 1103,
      "##ন": 1104,
      "##র": 1105,
      "##ن": 1106,
      "##ు": 1107,
      "##ڠ": 1108,
      "##ش": 1109,
      "##ی": 1110,
      "##ː": 1111,
      "##о": 1112,
      "##ส": 1113,
      "##ม": 1114,
      "##า": 1115,
      "##ค": 1116,
      "##ก": 1117,
      "##ร": 1118,
      "##ป": 1119,
      "##ย": 1120,
      "##ช": 1121,
      "##ต": 1122,
      "##ד": 1123,
      "##נ": 1124,
      "##ј": 1125,
      "##в": 1126,
      "##ಾ": 1127,
      "##ν": 1128,
      "##γ": 1129,
      "##פ": 1130,
      "##י": 1131,
      "##ם": 1132,
      "##ि": 1133,
      "##क": 1134,
      "##ב": 1135,
      "##ק": 1136,
      "##レ": 1137,
      "##シ": 1138,
      "##ェ": 1139,
      "##ン": 1140,
      "##ス": 1141,
      "##ի": 1142,
      "##ա": 1143,
      "##ե": 1144,
      "##ி": 1145,
      "##ன": 1146,
      "##ப": 1147,
      "##ு": 1148,
      "##ர": 1149,
      "##ம": 1150,
      "##ш": 1151,
      "##қ": 1152,
      "##б": 1153,
      "##μ": 1154,
      "##κ": 1155,
      "##ω": 1156,
      "##π": 1157,
      "##ー": 1158,
      "##ト": 1159,
      "##м": 1160,
      "##щ": 1161,
      "##ξ": 1162,
      "##χ": 1163,
      "##ा": 1164,
      "##ल": 1165,
      "##ᅩ": 1166,
      "##ع": 1167,
      "##ت": 1168,
      "##は": 1169,
      "##る": 1170,
      "##ج": 1171,
      "##م": 1172,
      "##ة": 1173,
      "##х": 1174,
      "##ق": 1175,
      "##г": 1176,
      "##ז": 1177,
      "##א": 1178,
      "##ه": 1179,
      "##ء": 1180,
      "##ய": 1181,
      "##न": 1182,
      "##र": 1183,
      "##ᅡ": 1184,
      "##ᆸ": 1185,
      "##ち": 1186,
      "##ы": 1187,
      "##ı": 1188,
      "##ᅧ": 1189,
      "##ᆫ": 1190,
      "##ヒ": 1191,
      "##ウ": 1192,
      "##տ": 1193,
      "##ր": 1194,
      "##ո": 1195,
      "##ս": 1196,
      "##յ": 1197,
      "##ն": 1198,
      "##ذ": 1199,
      "##σ": 1200,
      "##ᆼ": 1201,
      "##ッ": 1202,
      "##コ": 1203,
      "##マ": 1204,
      "##フ": 1205,
      "##ル": 1206,
      "##দ": 1207,
      "##ি": 1208,
      "##з": 1209,
      "##ð": 1210,
      "##ħ": 1211,
      "##リ": 1212,
      "##ᅦ": 1213,
      "##ᆯ": 1214,
      "##خ": 1215,
      "##گ": 1216,
      "##մ": 1217,
      "##ע": 1218,
      "##ך": 1219,
      "##द": 1220,
      "##מ": 1221,
      "##ө": 1222,
      "##ह": 1223,
      "##ज": 1224,
      "##ˈ": 1225,
      "##ɔ": 1226,
      "##я": 1227,
      "##ŋ": 1228,
      "##な": 1229,
      "##い": 1230,
      "##ə": 1231,
      "##か": 1232,
      "##ら": 1233,
      "##て": 1234,
      "##し": 1235,
      "##こ": 1236,
      "##ャ": 1237,
      "##ハ": 1238,
      "##ж": 1239,
      "##ß": 1240,
      "##φ": 1241,
      "##º": 1242,
      "##ʃ": 1243,
      "##の": 1244,
      "##হ": 1245,
      "##క": 1246,
      "##स": 1247,
      "##ɒ": 1248,
      "##ւ": 1249,
      "##っ": 1250,
      "##た": 1251,
      "##タ": 1252,
      "##ホ": 1253,
      "##ɡ": 1254,
      "##ᅵ": 1255,
      "##น": 1256,
      "##อ": 1257,
      "##พ": 1258,
      "##ะ": 1259,
      "##ท": 1260,
      "##ธ": 1261,
      "##บ": 1262,
      "##จ": 1263,
      "##ล": 1264,
      "##ง": 1265,
      "##य": 1266,
      "##θ": 1267,
      "##ᨕ": 1268,
      "##ᨙ": 1269,
      "##ᨔ": 1270,
      "##µ": 1271,
      "##ь": 1272,
      "##ण": 1273,
      "##メ": 1274,
      "##セ": 1275,
      "##э": 1276,
      "##ـ": 1277,
      "##þ": 1278,
      "##ツ": 1279,
      "##キ": 1280,
      "##স": 1281,
      "##च": 1282,
      "##і": 1283,
      "##п": 1284,
      "##ケ": 1285,
      "##エ": 1286,
      "##テ": 1287,
      "##オ": 1288,
      "##ܐ": 1289,
      "##ာ": 1290,
      "##မ": 1291,
      "##း": 1292,
      "##त": 1293,
      "##ब": 1294,
      "##ర": 1295,
      "##व": 1296,
      "##ث": 1297,
      "##チ": 1298,
      "##ク": 1299,
      "##イ": 1300,
      "##ү": 1301,
      "##よ": 1302,
      "##ꦥ": 1303,
      "##ʿ": 1304,
      "##ᅣ": 1305,
      "##ꦺ": 1306,
      "##ꦴ": 1307,
      "##ア": 1308,
      "##แ": 1309,
      "##ס": 1310,
      "##ो": 1311,
      "##ط": 1312,
      "##ん": 1313,
      "##ゃ": 1314,
      "##ɪ": 1315,
      "##म": 1316,
      "##կ": 1317,
      "##ᅳ": 1318,
      "##რ": 1319,
      "##ო": 1320,
      "##ლ": 1321,
      "##ე": 1322,
      "##ა": 1323,
      "##ი": 1324,
      "##ს": 1325,
      "##サ": 1326,
      "##ナ": 1327,
      "##ミ": 1328,
      "##œ": 1329,
      "##ས": 1330,
      "##ک": 1331,
      "##カ": 1332,
      "##ා": 1333,
      "##غ": 1334,
      "##ɑ": 1335,
      "##ʻ": 1336,
      "##த": 1337,
      "##に": 1338,
      "##ひ": 1339,
      "##ᆺ": 1340,
      "##ी": 1341,
      "##ห": 1342,
      "##ম": 1343,
      "##れ": 1344,
      "##ラ": 1345,
      "##め": 1346,
      "##ল": 1347,
      "##য": 1348,
      "##ʒ": 1349,
      "##ར": 1350,
      "##đ": 1351,
      "##ɐ": 1352,
      "##ব": 1353,
      "##ত": 1354,
      "##ী": 1355,
      "##ध": 1356,
      "##ט": 1357,
      "##ᅢ": 1358,
      "##ʼ": 1359,
      "##ᨚ": 1360,
      "##ɛ": 1361,
      "##ф": 1362,
      "##き": 1363,
      "##そ": 1364,
      "##ರ": 1365,
      "##ъ": 1366,
      "##り": 1367,
      "##ח": 1368,
      "##ほ": 1369,
      "##へ": 1370,
      "##श": 1371,
      "##ʲ": 1372,
      "##ด": 1373,
      "##ま": 1374,
      "##ว": 1375,
      "##と": 1376,
      "##ʊ": 1377,
      "##ʔ": 1378,
      "##थ": 1379,
      "##つ": 1380,
      "##ᆷ": 1381,
      "##ग": 1382,
      "##ꦫ": 1383,
      "##ظ": 1384,
      "##ਾ": 1385,
      "##も": 1386,
      "##ⴰ": 1387,
      "##ం": 1388,
      "##ꦱ": 1389,
      "##ꦤ": 1390,
      "##ろ": 1391,
      "##あ": 1392,
      "##ᨒ": 1393,
      "##う": 1394,
      "##ꦭ": 1395,
      "##ꦮ": 1396,
      "##თ": 1397,
      "##ვ": 1398,
      "##ꦢ": 1399,
      "##כ": 1400,
      "##ヘ": 1401,
      "##հ": 1402,
      "##み": 1403,
      "##す": 1404,
      "##ニ": 1405,
      "##ᅱ": 1406,
      "##ג": 1407,
      "##ꦧ": 1408,
      "##শ": 1409,
      "##お": 1410,
      "##を": 1411,
      "##ꦗ": 1412,
      "##け": 1413,
      "##โ": 1414,
      "##ʾ": 1415,
      "##प": 1416,
      "##ᨈ": 1417,
      "##త": 1418,
      "##ʰ": 1419,
      "##ꦠ": 1420,
      "##ศ": 1421,
      "##ソ": 1422,
      "##ᅪ": 1423,
      "##ہ": 1424,
      "##ә": 1425,
      "##پ": 1426,
      "##ា": 1427,
      "##រ": 1428,
      "##ワ": 1429,
      "##چ": 1430,
      "##ᨑ": 1431,
      "##さ": 1432,
      "##ڤ": 1433,
      "##ꦲ": 1434,
      "##ヤ": 1435,
      "##や": 1436,
      "##ィ": 1437,
      "##ム": 1438,
      "##ट": 1439,
      "##ꦏ": 1440,
      "##চ": 1441,
      "##भ": 1442,
      "##ड": 1443,
      "##ల": 1444,
      "##গ": 1445,
      "##న": 1446,
      "##เ": 1447,
      "##প": 1448,
      "##ꦩ": 1449,
      "##せ": 1450,
      "##জ": 1451,
      "##ロ": 1452,
      "##ね": 1453,
      "##ᅭ": 1454,
      "##ץ": 1455,
      "##ᨅ": 1456,
      "##ψ": 1457,
      "##ச": 1458,
      "##ᅲ": 1459,
      "##ष": 1460,
      "##ュ": 1461,
      "##ю": 1462,
      "##ˌ": 1463,
      "##ョ": 1464,
      "##ข": 1465,
      "##ᅨ": 1466,
      "##მ": 1467,
      "##ไ": 1468,
      "##え": 1469,
      "##ក": 1470,
      "##ᆻ": 1471,
      "##ᅴ": 1472,
      "##ᴡ": 1473,
      "##ʁ": 1474,
      "##ᨆ": 1475,
      "##ℓ": 1476,
      "##ᅬ": 1477,
      "##ᅯ": 1478,
      "##モ": 1479,
      "##க": 1480,
      "##わ": 1481,
      "##ꦒ": 1482,
      "##བ": 1483,
      "##अ": 1484,
      "##ᄇ": 1485,
      "##उ": 1486,
      "##an": 1487,
      "##er": 1488,
      "##en": 1489,
      "##ar": 1490,
      "##ang": 1491,
      "##ah": 1492,
      "##al": 1493,
      "##at": 1494,
      "di": 1495,
      "se": 1496,
      "##am": 1497,
      "##in": 1498,
      "##as": 1499,
      "##ak": 1500,
      "##un": 1501,
      "##em": 1502,
      "##ad": 1503,
      "men": 1504,
      "##el": 1505,
      "##es": 1506,
      "##kan": 1507,
      "##ya": 1508,
      "dan": 1509,
      "yang": 1510,
      "##is": 1511,
      "##tu": 1512,
      "##on": 1513,
      "##il": 1514,
      "##ga": 1515,
      "in": 1516,
      "##ik": 1517,
      "##ari": 1518,
      "ke": 1519,
      "ber": 1520,
      "##us": 1521,
      "##ta": 1522,
      "##eng": 1523,
      "##ada": 1524,
      "ter": 1525,
      "##bu": 1526,
      "per": 1527,
      "##or": 1528,
      "##ing": 1529,
      "##ur": 1530,
      "##it": 1531,
      "##um": 1532,
      "dari": 1533,
      "##ia": 1534,
      "pada": 1535,
      "##ara": 1536,
      "##ir": 1537,
      "##nya": 1538,
      "##id": 1539,
      "##ul": 1540,
      "##ap": 1541,
      "ini": 1542,
      "##akan": 1543,
      "ad": 1544,
      "##ba": 1545,
      "mem": 1546,
      "##ol": 1547,
      "##alah": 1548,
      "##uk": 1549,
      "##im": 1550,
      "##ek": 1551,
      "##ama": 1552,
      "un": 1553,
      "##engan": 1554,
      "dengan": 1555,
      "##ian": 1556,
      "##tuk": 1557,
      "##asi": 1558,
      "##up": 1559,
      "##alam": 1560,
      "meng": 1561,
      "##om": 1562,
      "##ung": 1563,
      "mer": 1564,
      "##ut": 1565,
      "adalah": 1566,
      "##le": 1567,
      "sep": 1568,
      "##ag": 1569,
      "dalam": 1570,
      "an": 1571,
      "untuk": 1572,
      "pen": 1573,
      "##ti": 1574,
      "##ud": 1575,
      "##ai": 1576,
      "##ro": 1577,
      "##ter": 1578,
      "tah": 1579,
      "##eb": 1580,
      "##si": 1581,
      "tahun": 1582,
      "##et": 1583,
      "##gai": 1584,
      "##and": 1585,
      "##se": 1586,
      "20": 1587,
      "##ay": 1588,
      "seba": 1589,
      "19": 1590,
      "##leh": 1591,
      "oleh": 1592,
      "##adi": 1593,
      "##atan": 1594,
      "ju": 1595,
      "pem": 1596,
      "##os": 1597,
      "##aw": 1598,
      "##ih": 1599,
      "sebagai": 1600,
      "##ain": 1601,
      "##anya": 1602,
      "or": 1603,
      "##eg": 1604,
      "##elah": 1605,
      "##tr": 1606,
      "menj": 1607,
      "##ok": 1608,
      "juga": 1609,
      "##but": 1610,
      "sp": 1611,
      "##uh": 1612,
      "##ed": 1613,
      "##ber": 1614,
      "##aj": 1615,
      "##esi": 1616,
      "sel": 1617,
      "##upakan": 1618,
      "merupakan": 1619,
      "##bang": 1620,
      "##ong": 1621,
      "bah": 1622,
      "##asa": 1623,
      "##atu": 1624,
      "##amp": 1625,
      "mel": 1626,
      "##wa": 1627,
      "##apat": 1628,
      "##ab": 1629,
      "al": 1630,
      "kem": 1631,
      "bag": 1632,
      "##ali": 1633,
      "ia": 1634,
      "as": 1635,
      "##od": 1636,
      "menjadi": 1637,
      "ser": 1638,
      "##sebut": 1639,
      "##isi": 1640,
      "##ep": 1641,
      "kar": 1642,
      "pert": 1643,
      "peng": 1644,
      "ar": 1645,
      "##idak": 1646,
      "spesi": 1647,
      "##ukan": 1648,
      "ata": 1649,
      "##ent": 1650,
      "spesies": 1651,
      "##end": 1652,
      "tidak": 1653,
      "pro": 1654,
      "##op": 1655,
      "meny": 1656,
      "atau": 1657,
      "##aan": 1658,
      "##ua": 1659,
      "##ub": 1660,
      "kel": 1661,
      "##angan": 1662,
      "sek": 1663,
      "ind": 1664,
      "pr": 1665,
      "##pat": 1666,
      "##ika": 1667,
      "##iri": 1668,
      "##ic": 1669,
      "bagian": 1670,
      "fil": 1671,
      "##ahan": 1672,
      "set": 1673,
      "##ota": 1674,
      "itu": 1675,
      "201": 1676,
      "dip": 1677,
      "ak": 1678,
      "##gi": 1679,
      "ap": 1680,
      "##ot": 1681,
      "sem": 1682,
      "##ana": 1683,
      "tersebut": 1684,
      "##buah": 1685,
      "##eka": 1686,
      "##any": 1687,
      "sebuah": 1688,
      "##ip": 1689,
      "##gal": 1690,
      "##ilik": 1691,
      "##aya": 1692,
      "kep": 1693,
      "##anj": 1694,
      "mereka": 1695,
      "200": 1696,
      "mas": 1697,
      "##ena": 1698,
      "ker": 1699,
      "bar": 1700,
      "##ata": 1701,
      "##ati": 1702,
      "##esar": 1703,
      "##ac": 1704,
      "##ant": 1705,
      "##eta": 1706,
      "##int": 1707,
      "dapat": 1708,
      "dik": 1709,
      "am": 1710,
      "##uan": 1711,
      "seb": 1712,
      "##amb": 1713,
      "orang": 1714,
      "sa": 1715,
      "lain": 1716,
      "##iliki": 1717,
      "##tem": 1718,
      "##gun": 1719,
      "telah": 1720,
      "##ra": 1721,
      "pend": 1722,
      "satu": 1723,
      "##cara": 1724,
      "memiliki": 1725,
      "kon": 1726,
      "neg": 1727,
      "bi": 1728,
      "##erti": 1729,
      "##ri": 1730,
      "##ch": 1731,
      "leb": 1732,
      "des": 1733,
      "seperti": 1734,
      "##inya": 1735,
      "kom": 1736,
      "pertama": 1737,
      "bahwa": 1738,
      "##ew": 1739,
      "##ikan": 1740,
      "##itas": 1741,
      "ag": 1742,
      "##aran": 1743,
      "is": 1744,
      "##lah": 1745,
      "##tara": 1746,
      "mus": 1747,
      "karena": 1748,
      "th": 1749,
      "kota": 1750,
      "##ones": 1751,
      "##do": 1752,
      "setelah": 1753,
      "##angk": 1754,
      "##erap": 1755,
      "beb": 1756,
      "lebih": 1757,
      "mend": 1758,
      "##orang": 1759,
      "sej": 1760,
      "dis": 1761,
      "ang": 1762,
      "film": 1763,
      "indones": 1764,
      "st": 1765,
      "indonesia": 1766,
      "##ja": 1767,
      "##onal": 1768,
      "nama": 1769,
      "##etap": 1770,
      "##ae": 1771,
      "##ui": 1772,
      "##gunakan": 1773,
      "##ingga": 1774,
      "kec": 1775,
      "ch": 1776,
      "gen": 1777,
      "##oh": 1778,
      "bel": 1779,
      "##per": 1780,
      "tem": 1781,
      "##ita": 1782,
      "seorang": 1783,
      "##ili": 1784,
      "##og": 1785,
      "akan": 1786,
      "##erapa": 1787,
      "beberapa": 1788,
      "tim": 1789,
      "##hir": 1790,
      "##anyak": 1791,
      "secara": 1792,
      "saat": 1793,
      "at": 1794,
      "besar": 1795,
      "da": 1796,
      "kemud": 1797,
      "##asan": 1798,
      "##ala": 1799,
      "la": 1800,
      "##asil": 1801,
      "##ind": 1802,
      "kemudian": 1803,
      "su": 1804,
      "##ib": 1805,
      "##ayu": 1806,
      "##ungan": 1807,
      "##ris": 1808,
      "##th": 1809,
      "##arkan": 1810,
      "##rop": 1811,
      "##ingk": 1812,
      "##alan": 1813,
      "ka": 1814,
      "tang": 1815,
      "bers": 1816,
      "tetap": 1817,
      "dit": 1818,
      "ked": 1819,
      "ti": 1820,
      "ada": 1821,
      "menc": 1822,
      "##anc": 1823,
      "pas": 1824,
      "lal": 1825,
      "##ov": 1826,
      "##00": 1827,
      "kes": 1828,
      "##aman": 1829,
      "wil": 1830,
      "dia": 1831,
      "terd": 1832,
      "berk": 1833,
      "par": 1834,
      "mar": 1835,
      "##ula": 1836,
      "##tus": 1837,
      "ket": 1838,
      "##alia": 1839,
      "kayu": 1840,
      "tr": 1841,
      "lag": 1842,
      "fam": 1843,
      "negara": 1844,
      "##enal": 1845,
      "##sa": 1846,
      "dir": 1847,
      "banyak": 1848,
      "desa": 1849,
      "##imp": 1850,
      "dil": 1851,
      "memb": 1852,
      "##unan": 1853,
      "##man": 1854,
      "para": 1855,
      "##entuk": 1856,
      "ordo": 1857,
      "um": 1858,
      "kali": 1859,
      "apos": 1860,
      "sen": 1861,
      "##tur": 1862,
      "##uar": 1863,
      "pel": 1864,
      "##uj": 1865,
      "genus": 1866,
      "##olong": 1867,
      "##buat": 1868,
      "##bit": 1869,
      "##eh": 1870,
      "##iv": 1871,
      "##ulai": 1872,
      "the": 1873,
      "bahasa": 1874,
      "##idup": 1875,
      "ek": 1876,
      "nam": 1877,
      "kelas": 1878,
      "##ob": 1879,
      "terg": 1880,
      "##oid": 1881,
      "##ec": 1882,
      "##asanya": 1883,
      "##gan": 1884,
      "antara": 1885,
      "dim": 1886,
      "dua": 1887,
      "18": 1888,
      "##aja": 1889,
      "famili": 1890,
      "salah": 1891,
      "tan": 1892,
      "man": 1893,
      "199": 1894,
      "##erint": 1895,
      "##mi": 1896,
      "biasanya": 1897,
      "##la": 1898,
      "kum": 1899,
      "##han": 1900,
      "aster": 1901,
      "##ayah": 1902,
      "sang": 1903,
      "peny": 1904,
      "##erah": 1905,
      "tanggal": 1906,
      "aw": 1907,
      "##unya": 1908,
      "##akukan": 1909,
      "wilayah": 1910,
      "mengh": 1911,
      "amer": 1912,
      "##uran": 1913,
      "##ka": 1914,
      "ab": 1915,
      "##unia": 1916,
      "berb": 1917,
      "tergolong": 1918,
      "pol": 1919,
      "tetapi": 1920,
      "##ev": 1921,
      "##tak": 1922,
      "samp": 1923,
      "##li": 1924,
      "asteroid": 1925,
      "##idae": 1926,
      "har": 1927,
      "sed": 1928,
      "bul": 1929,
      "atas": 1930,
      "il": 1931,
      "##ers": 1932,
      "##anjang": 1933,
      "sebel": 1934,
      "dunia": 1935,
      "##ug": 1936,
      "kumbang": 1937,
      "hal": 1938,
      "mes": 1939,
      "put": 1940,
      "sebelum": 1941,
      "anak": 1942,
      "##tor": 1943,
      "baru": 1944,
      "##orm": 1945,
      "##asional": 1946,
      "##if": 1947,
      "amerika": 1948,
      "##ima": 1949,
      "br": 1950,
      "ting": 1951,
      "mak": 1952,
      "ut": 1953,
      "##emp": 1954,
      "pemerint": 1955,
      "namun": 1956,
      "pl": 1957,
      "lalat": 1958,
      "did": 1959,
      "anim": 1960,
      "##itar": 1961,
      "##eri": 1962,
      "send": 1963,
      "en": 1964,
      "##aitu": 1965,
      "hingga": 1966,
      "kepada": 1967,
      "de": 1968,
      "sh": 1969,
      "bat": 1970,
      "yaitu": 1971,
      "##entara": 1972,
      "##mas": 1973,
      "akhir": 1974,
      "tempat": 1975,
      "##angkan": 1976,
      "selama": 1977,
      "umum": 1978,
      "me": 1979,
      "hidup": 1980,
      "##ikut": 1981,
      "##umlah": 1982,
      "so": 1983,
      "##ingan": 1984,
      "sis": 1985,
      "##tar": 1986,
      "##oda": 1987,
      "berd": 1988,
      "pes": 1989,
      "##na": 1990,
      "dib": 1991,
      "ger": 1992,
      "##ig": 1993,
      "hari": 1994,
      "mat": 1995,
      "hanya": 1996,
      "ing": 1997,
      "sendiri": 1998,
      "rum": 1999,
      "##yar": 2000,
      "##tera": 2001,
      "menye": 2002,
      "ba": 2003,
      "##annya": 2004,
      "terb": 2005,
      "##ingkat": 2006,
      "##ina": 2007,
      "ketika": 2008,
      "##uruh": 2009,
      "##adap": 2010,
      "angg": 2011,
      "##anda": 2012,
      "king": 2013,
      "##und": 2014,
      "digunakan": 2015,
      "sampai": 2016,
      "wak": 2017,
      "##uku": 2018,
      "##to": 2019,
      "##embang": 2020,
      "din": 2021,
      "##unc": 2022,
      "sama": 2023,
      "##tai": 2024,
      "##bab": 2025,
      "##awan": 2026,
      "bis": 2027,
      "##unj": 2028,
      "pal": 2029,
      "ku": 2030,
      "ma": 2031,
      "kh": 2032,
      "##usia": 2033,
      "pers": 2034,
      "seh": 2035,
      "##asih": 2036,
      "terle": 2037,
      "##bali": 2038,
      "##dom": 2039,
      "##ten": 2040,
      "serta": 2041,
      "daerah": 2042,
      "##ard": 2043,
      "sekitar": 2044,
      "gr": 2045,
      "memper": 2046,
      "##iap": 2047,
      "lagu": 2048,
      "##tan": 2049,
      "diter": 2050,
      "##akar": 2051,
      "bang": 2052,
      "##ni": 2053,
      "air": 2054,
      "##ikat": 2055,
      "##ode": 2056,
      "filum": 2057,
      "kek": 2058,
      "sangat": 2059,
      "kingdom": 2060,
      "animalia": 2061,
      "disebut": 2062,
      "arth": 2063,
      "us": 2064,
      "terj": 2065,
      "bersama": 2066,
      "##arang": 2067,
      "##udah": 2068,
      "cer": 2069,
      "barat": 2070,
      "##su": 2071,
      "re": 2072,
      "masa": 2073,
      "##uduk": 2074,
      "##cta": 2075,
      "kedua": 2076,
      "of": 2077,
      "lainnya": 2078,
      "sejak": 2079,
      "##duk": 2080,
      "inse": 2081,
      "pern": 2082,
      "##ropoda": 2083,
      "##ea": 2084,
      "inter": 2085,
      "selatan": 2086,
      "arthropoda": 2087,
      "##arah": 2088,
      "kap": 2089,
      "insecta": 2090,
      "awal": 2091,
      "kembali": 2092,
      "##olo": 2093,
      "##amatan": 2094,
      "##ting": 2095,
      "berh": 2096,
      "sur": 2097,
      "##omp": 2098,
      "teng": 2099,
      "##usah": 2100,
      "terletak": 2101,
      "timur": 2102,
      "bulan": 2103,
      "res": 2104,
      "sum": 2105,
      "dikenal": 2106,
      "198": 2107,
      "##ses": 2108,
      "##ori": 2109,
      "##ikasi": 2110,
      "beras": 2111,
      "##ungk": 2112,
      "anggota": 2113,
      "##olah": 2114,
      "##entang": 2115,
      "diper": 2116,
      "menggunakan": 2117,
      "##ans": 2118,
      "##ons": 2119,
      "memp": 2120,
      "col": 2121,
      "##oc": 2122,
      "##ont": 2123,
      "##awa": 2124,
      "terh": 2125,
      "##akat": 2126,
      "##ow": 2127,
      "tel": 2128,
      "membuat": 2129,
      "##ilih": 2130,
      "war": 2131,
      "##uas": 2132,
      "##di": 2133,
      "##itik": 2134,
      "pula": 2135,
      "##ulis": 2136,
      "perm": 2137,
      "##babkan": 2138,
      "si": 2139,
      "kor": 2140,
      "##impin": 2141,
      "##est": 2142,
      "komp": 2143,
      "berp": 2144,
      "##gian": 2145,
      "keb": 2146,
      "##angg": 2147,
      "mulai": 2148,
      "##ini": 2149,
      "berasal": 2150,
      "kl": 2151,
      "member": 2152,
      "panjang": 2153,
      "##uda": 2154,
      "##atakan": 2155,
      "##alui": 2156,
      "##paten": 2157,
      "kabu": 2158,
      "ditem": 2159,
      "pemb": 2160,
      "sm": 2161,
      "12": 2162,
      "eks": 2163,
      "##yah": 2164,
      "tak": 2165,
      "##emb": 2166,
      "raja": 2167,
      "kecamatan": 2168,
      "##gap": 2169,
      "##aki": 2170,
      "##bitkan": 2171,
      "masih": 2172,
      "sementara": 2173,
      "berba": 2174,
      "melalui": 2175,
      "##ember": 2176,
      "rumah": 2177,
      "10": 2178,
      "dem": 2179,
      "##ustr": 2180,
      "fr": 2181,
      "##utan": 2182,
      "perang": 2183,
      "baw": 2184,
      "sehingga": 2185,
      "berada": 2186,
      "##era": 2187,
      "te": 2188,
      "em": 2189,
      "kons": 2190,
      "utama": 2191,
      "sekolah": 2192,
      "##insi": 2193,
      "li": 2194,
      "termas": 2195,
      "pan": 2196,
      "##tif": 2197,
      "kabupaten": 2198,
      "termasuk": 2199,
      "##angs": 2200,
      "keluar": 2201,
      "serikat": 2202,
      "##iran": 2203,
      "##ilis": 2204,
      "##ilan": 2205,
      "##bum": 2206,
      "utara": 2207,
      "##enc": 2208,
      "and": 2209,
      "##ani": 2210,
      "##alis": 2211,
      "band": 2212,
      "jep": 2213,
      "kr": 2214,
      "terk": 2215,
      "##va": 2216,
      "berm": 2217,
      "terdapat": 2218,
      "tur": 2219,
      "waktu": 2220,
      "tiga": 2221,
      "ingg": 2222,
      "bisa": 2223,
      "##ju": 2224,
      "menyebabkan": 2225,
      "lar": 2226,
      "inggris": 2227,
      "##ahkan": 2228,
      "terhadap": 2229,
      "tinggi": 2230,
      "kal": 2231,
      "##gr": 2232,
      "bert": 2233,
      "tek": 2234,
      "##yarakat": 2235,
      "berbagai": 2236,
      "kur": 2237,
      "dr": 2238,
      "197": 2239,
      "##ologi": 2240,
      "##upun": 2241,
      "bagi": 2242,
      "berl": 2243,
      "##tik": 2244,
      "penduduk": 2245,
      "masyarakat": 2246,
      "##uari": 2247,
      "selain": 2248,
      "min": 2249,
      "diterbitkan": 2250,
      "##eker": 2251,
      "album": 2252,
      "##ola": 2253,
      "univ": 2254,
      "##buhan": 2255,
      "##ha": 2256,
      "suatu": 2257,
      "##iter": 2258,
      "##me": 2259,
      "##ubah": 2260,
      "tum": 2261,
      "##ensi": 2262,
      "pe": 2263,
      "##aks": 2264,
      "intern": 2265,
      "prov": 2266,
      "ne": 2267,
      "jepang": 2268,
      "##usi": 2269,
      "15": 2270,
      "##atkan": 2271,
      "sun": 2272,
      "mendapat": 2273,
      "bawah": 2274,
      "ok": 2275,
      "jer": 2276,
      "sudah": 2277,
      "##bur": 2278,
      "sistem": 2279,
      "##uc": 2280,
      "univers": 2281,
      "##inggal": 2282,
      "tentang": 2283,
      "mal": 2284,
      "menur": 2285,
      "bern": 2286,
      "ii": 2287,
      "196": 2288,
      "berj": 2289,
      "##itan": 2290,
      "laut": 2291,
      "##yc": 2292,
      "##enis": 2293,
      "##apan": 2294,
      "pernah": 2295,
      "provinsi": 2296,
      "pos": 2297,
      "sal": 2298,
      "##akarta": 2299,
      "negeri": 2300,
      "med": 2301,
      "semua": 2302,
      "##iden": 2303,
      "##ungkin": 2304,
      "ilmi": 2305,
      "##ubl": 2306,
      "pengh": 2307,
      "ilmiah": 2308,
      "nasional": 2309,
      "musik": 2310,
      "##usahaan": 2311,
      "pus": 2312,
      "bu": 2313,
      "##idikan": 2314,
      "kat": 2315,
      "perusahaan": 2316,
      "musim": 2317,
      "el": 2318,
      "gel": 2319,
      "##ton": 2320,
      "17": 2321,
      "dek": 2322,
      "##uni": 2323,
      "baik": 2324,
      "keh": 2325,
      "jawa": 2326,
      "terdiri": 2327,
      "karya": 2328,
      "mil": 2329,
      "##eop": 2330,
      "##antu": 2331,
      "kecil": 2332,
      "abad": 2333,
      "melakukan": 2334,
      "bud": 2335,
      "seri": 2336,
      "jumlah": 2337,
      "laba": 2338,
      "ins": 2339,
      "terjadi": 2340,
      "tengah": 2341,
      "mod": 2342,
      "paling": 2343,
      "194": 2344,
      "mesk": 2345,
      "##awat": 2346,
      "terp": 2347,
      "##ihat": 2348,
      "16": 2349,
      "##anan": 2350,
      "##hi": 2351,
      "berikut": 2352,
      "keraj": 2353,
      "##akhir": 2354,
      "##tikan": 2355,
      "seluruh": 2356,
      "pemerintah": 2357,
      "terl": 2358,
      "##eda": 2359,
      "##uli": 2360,
      "##ahari": 2361,
      "sk": 2362,
      "sul": 2363,
      "##duksi": 2364,
      "##asarkan": 2365,
      "pendidikan": 2366,
      "nov": 2367,
      "##yat": 2368,
      "mana": 2369,
      "perk": 2370,
      "##ump": 2371,
      "##ond": 2372,
      "coleop": 2373,
      "coleoptera": 2374,
      "##buh": 2375,
      "##angi": 2376,
      "##teri": 2377,
      "pres": 2378,
      "menurut": 2379,
      "##irikan": 2380,
      "lah": 2381,
      "sebagian": 2382,
      "##ij": 2383,
      "jalan": 2384,
      "kerajaan": 2385,
      "dih": 2386,
      "##angsung": 2387,
      "ist": 2388,
      "000": 2389,
      "mis": 2390,
      "sin": 2391,
      "##ne": 2392,
      "##lam": 2393,
      "##abat": 2394,
      "##af": 2395,
      "meninggal": 2396,
      "11": 2397,
      "##anjut": 2398,
      "dew": 2399,
      "##aris": 2400,
      "ditu": 2401,
      "jerman": 2402,
      "setiap": 2403,
      "##ancis": 2404,
      "sesu": 2405,
      "akhirnya": 2406,
      "larva": 2407,
      "pulau": 2408,
      "##ompok": 2409,
      "dilakukan": 2410,
      "mah": 2411,
      "harus": 2412,
      "str": 2413,
      "sering": 2414,
      "rom": 2415,
      "ben": 2416,
      "bal": 2417,
      "kerus": 2418,
      "ac": 2419,
      "13": 2420,
      "##atif": 2421,
      "plan": 2422,
      "batang": 2423,
      "pasukan": 2424,
      "##eja": 2425,
      "dep": 2426,
      "matahari": 2427,
      "##wan": 2428,
      "93": 2429,
      "##ril": 2430,
      "##ukkan": 2431,
      "diber": 2432,
      "##ami": 2433,
      "angk": 2434,
      "91": 2435,
      "diri": 2436,
      "le": 2437,
      "tok": 2438,
      "cuk": 2439,
      "##gab": 2440,
      "##angkat": 2441,
      "##onom": 2442,
      "tanah": 2443,
      "lahir": 2444,
      "bernama": 2445,
      "##inta": 2446,
      "##ukum": 2447,
      "kapal": 2448,
      "##aknya": 2449,
      "##ersi": 2450,
      "##te": 2451,
      "belanda": 2452,
      "##pa": 2453,
      "##oy": 2454,
      "##ambil": 2455,
      "##apai": 2456,
      "sungai": 2457,
      "195": 2458,
      "##lis": 2459,
      "masing": 2460,
      "pemerintahan": 2461,
      "mener": 2462,
      "kata": 2463,
      "makan": 2464,
      "##ma": 2465,
      "sebelumnya": 2466,
      "perd": 2467,
      "perj": 2468,
      "kerusakan": 2469,
      "##eks": 2470,
      "##eran": 2471,
      "14": 2472,
      "##uru": 2473,
      "sekarang": 2474,
      "bentuk": 2475,
      "##ens": 2476,
      "lagi": 2477,
      "tand": 2478,
      "kol": 2479,
      "pusat": 2480,
      "##isasi": 2481,
      "ul": 2482,
      "##asar": 2483,
      "planet": 2484,
      "universitas": 2485,
      "##ilah": 2486,
      "cukup": 2487,
      "##ine": 2488,
      "tu": 2489,
      "##angka": 2490,
      "im": 2491,
      "##anggap": 2492,
      "memba": 2493,
      "pop": 2494,
      "gereja": 2495,
      "##aku": 2496,
      "##ou": 2497,
      "berhasil": 2498,
      "##ord": 2499,
      "ik": 2500,
      "jar": 2501,
      "##adang": 2502,
      "rep": 2503,
      "prancis": 2504,
      "##umi": 2505,
      "sebesar": 2506,
      "##bangun": 2507,
      "##idang": 2508,
      "##re": 2509,
      "ud": 2510,
      "organ": 2511,
      "inf": 2512,
      "tekn": 2513,
      "kris": 2514,
      "##ern": 2515,
      "menem": 2516,
      "luar": 2517,
      "up": 2518,
      "##ipun": 2519,
      "erop": 2520,
      "##amanya": 2521,
      "eropa": 2522,
      "manusia": 2523,
      "##utus": 2524,
      "##uasa": 2525,
      "##tiv": 2526,
      "##ci": 2527,
      "##ila": 2528,
      "meskipun": 2529,
      "proses": 2530,
      "##etah": 2531,
      "umumnya": 2532,
      "berdasarkan": 2533,
      "lok": 2534,
      "tiong": 2535,
      "##ampil": 2536,
      "maka": 2537,
      "ib": 2538,
      "##ublik": 2539,
      "##ekerja": 2540,
      "##askan": 2541,
      "ge": 2542,
      "trans": 2543,
      "muda": 2544,
      "##engk": 2545,
      "##ubungan": 2546,
      "ob": 2547,
      "kepala": 2548,
      "progr": 2549,
      "pun": 2550,
      "##land": 2551,
      "hukum": 2552,
      "jan": 2553,
      "tanduk": 2554,
      "sat": 2555,
      "jam": 2556,
      "kita": 2557,
      "##ebang": 2558,
      "mag": 2559,
      "kelompok": 2560,
      "##ebor": 2561,
      "jenis": 2562,
      "##ly": 2563,
      "##araan": 2564,
      "keluarga": 2565,
      "ji": 2566,
      "##ich": 2567,
      "##aksi": 2568,
      "dekat": 2569,
      "ibu": 2570,
      "##aka": 2571,
      "##usus": 2572,
      "sejarah": 2573,
      "##isme": 2574,
      "memberikan": 2575,
      "##uhan": 2576,
      "hasil": 2577,
      "##ura": 2578,
      "lalu": 2579,
      "##entu": 2580,
      "ditebang": 2581,
      "terba": 2582,
      "komun": 2583,
      "sy": 2584,
      "gun": 2585,
      "##ca": 2586,
      "mengebor": 2587,
      "ceramb": 2588,
      "cerambyc": 2589,
      "cerambycidae": 2590,
      "pesawat": 2591,
      "km": 2592,
      "##epat": 2593,
      "id": 2594,
      "##eae": 2595,
      "##ibat": 2596,
      "##ki": 2597,
      "##api": 2598,
      "pener": 2599,
      "dar": 2600,
      "presiden": 2601,
      "ri": 2602,
      "##usan": 2603,
      "na": 2604,
      "politik": 2605,
      "acara": 2606,
      "program": 2607,
      "##mu": 2608,
      "##gaan": 2609,
      "mengen": 2610,
      "##ell": 2611,
      "##ank": 2612,
      "maj": 2613,
      "ir": 2614,
      "##ef": 2615,
      "dirilis": 2616,
      "dij": 2617,
      "partai": 2618,
      "##ingg": 2619,
      "tumbuhan": 2620,
      "bur": 2621,
      "bl": 2622,
      "it": 2623,
      "##uncul": 2624,
      "##erasi": 2625,
      "dat": 2626,
      "pemain": 2627,
      "juni": 2628,
      "lem": 2629,
      "buku": 2630,
      "##alu": 2631,
      "khusus": 2632,
      "pa": 2633,
      "met": 2634,
      "##raf": 2635,
      "masuk": 2636,
      "##unyai": 2637,
      "islam": 2638,
      "##ry": 2639,
      "##atat": 2640,
      "##asis": 2641,
      "udara": 2642,
      "mempunyai": 2643,
      "gu": 2644,
      "ed": 2645,
      "##ender": 2646,
      "jakarta": 2647,
      "nom": 2648,
      "jika": 2649,
      "2010": 2650,
      "luas": 2651,
      "terc": 2652,
      "empat": 2653,
      "stasi": 2654,
      "##rad": 2655,
      "bidang": 2656,
      "##gabung": 2657,
      "##istr": 2658,
      "jal": 2659,
      "suku": 2660,
      "ja": 2661,
      "dic": 2662,
      "nebu": 2663,
      "agama": 2664,
      "menga": 2665,
      "##antan": 2666,
      "bangsa": 2667,
      "##akit": 2668,
      "##entr": 2669,
      "agus": 2670,
      "##inal": 2671,
      "kas": 2672,
      "dig": 2673,
      "sw": 2674,
      "tuj": 2675,
      "batu": 2676,
      "stasiun": 2677,
      "nebula": 2678,
      "##aruh": 2679,
      "pi": 2680,
      "lama": 2681,
      "pat": 2682,
      "kamp": 2683,
      "internasional": 2684,
      "af": 2685,
      "##emen": 2686,
      "##buka": 2687,
      "amp": 2688,
      "asal": 2689,
      "##egi": 2690,
      "##ira": 2691,
      "on": 2692,
      "##eo": 2693,
      "berbeda": 2694,
      "berubah": 2695,
      "bumi": 2696,
      "##inasi": 2697,
      "##udul": 2698,
      "##ator": 2699,
      "lap": 2700,
      "ayah": 2701,
      "bola": 2702,
      "juli": 2703,
      "##oleh": 2704,
      "ro": 2705,
      "memen": 2706,
      "india": 2707,
      "car": 2708,
      "perl": 2709,
      "##por": 2710,
      "##uka": 2711,
      "diba": 2712,
      "kaw": 2713,
      "##elit": 2714,
      "bermain": 2715,
      "##tober": 2716,
      "stu": 2717,
      "##ukung": 2718,
      "pet": 2719,
      "terakhir": 2720,
      "desember": 2721,
      "sedangkan": 2722,
      "##tember": 2723,
      "laki": 2724,
      "##upa": 2725,
      "mei": 2726,
      "wan": 2727,
      "popul": 2728,
      "oktober": 2729,
      "bekerja": 2730,
      "diptera": 2731,
      "ru": 2732,
      "mendapatkan": 2733,
      "sosi": 2734,
      "##oph": 2735,
      "co": 2736,
      "sup": 2737,
      "trad": 2738,
      "ilmu": 2739,
      "##urkan": 2740,
      "menunj": 2741,
      "##ulu": 2742,
      "jalur": 2743,
      "##ation": 2744,
      "september": 2745,
      "mon": 2746,
      "penggun": 2747,
      "ep": 2748,
      "##tis": 2749,
      "2011": 2750,
      "ditemukan": 2751,
      "muncul": 2752,
      "maret": 2753,
      "maupun": 2754,
      "sumber": 2755,
      "tanpa": 2756,
      "tinggal": 2757,
      "##ger": 2758,
      "agustus": 2759,
      "penc": 2760,
      "##ill": 2761,
      "ah": 2762,
      "kun": 2763,
      "lt": 2764,
      "##atian": 2765,
      "mencapai": 2766,
      "##ayaan": 2767,
      "gt": 2768,
      "jiwa": 2769,
      "new": 2770,
      "resmi": 2771,
      "januari": 2772,
      "##tua": 2773,
      "##uti": 2774,
      "193": 2775,
      "2012": 2776,
      "keti": 2777,
      "april": 2778,
      "sekali": 2779,
      "hak": 2780,
      "dasar": 2781,
      "sub": 2782,
      "##ebr": 2783,
      "30": 2784,
      "##osi": 2785,
      "##ida": 2786,
      "sam": 2787,
      "menteri": 2788,
      "austr": 2789,
      "militer": 2790,
      "##onomi": 2791,
      "terkenal": 2792,
      "menyatakan": 2793,
      "dibuat": 2794,
      "sing": 2795,
      "##inan": 2796,
      "penghar": 2797,
      "oper": 2798,
      "##ge": 2799,
      "##ity": 2800,
      "to": 2801,
      "und": 2802,
      "##uri": 2803,
      "bo": 2804,
      "##buk": 2805,
      "##ho": 2806,
      "penghargaan": 2807,
      "pang": 2808,
      "##kok": 2809,
      "tradisi": 2810,
      "##war": 2811,
      "be": 2812,
      "##ormasi": 2813,
      "penting": 2814,
      "bukan": 2815,
      "##nis": 2816,
      "ur": 2817,
      "##isan": 2818,
      "korea": 2819,
      "##ikuti": 2820,
      "ters": 2821,
      "juta": 2822,
      "dianggap": 2823,
      "##udi": 2824,
      "kan": 2825,
      "agar": 2826,
      "ca": 2827,
      "##eksi": 2828,
      "##engg": 2829,
      "bad": 2830,
      "##bangan": 2831,
      "antar": 2832,
      "lay": 2833,
      "orbit": 2834,
      "klub": 2835,
      "rak": 2836,
      "2013": 2837,
      "perb": 2838,
      "gelar": 2839,
      "seni": 2840,
      "mengg": 2841,
      "25": 2842,
      "##embangan": 2843,
      "tiongkok": 2844,
      "no": 2845,
      "didirikan": 2846,
      "langsung": 2847,
      "##asilkan": 2848,
      "##intang": 2849,
      "##omb": 2850,
      "peri": 2851,
      "##ilai": 2852,
      "##aikan": 2853,
      "##alami": 2854,
      "tingkat": 2855,
      "mengenai": 2856,
      "##ach": 2857,
      "##atur": 2858,
      "kam": 2859,
      "2009": 2860,
      "hubungan": 2861,
      "##ue": 2862,
      "angkatan": 2863,
      "##ajar": 2864,
      "2014": 2865,
      "lat": 2866,
      "november": 2867,
      "er": 2868,
      "##evisi": 2869,
      "cara": 2870,
      "sedang": 2871,
      "##tas": 2872,
      "##ej": 2873,
      "bab": 2874,
      "peremp": 2875,
      "2008": 2876,
      "wanita": 2877,
      "sejumlah": 2878,
      "putra": 2879,
      "kurang": 2880,
      "suara": 2881,
      "kereta": 2882,
      "##aria": 2883,
      "perempuan": 2884,
      "##fer": 2885,
      "bahan": 2886,
      "##utrad": 2887,
      "2007": 2888,
      "##ack": 2889,
      "ph": 2890,
      "tubuh": 2891,
      "republik": 2892,
      "rek": 2893,
      "##utu": 2894,
      "##pr": 2895,
      "es": 2896,
      "joh": 2897,
      "##all": 2898,
      "kari": 2899,
      "##son": 2900,
      "##ungsi": 2901,
      "yak": 2902,
      "versi": 2903,
      "mungkin": 2904,
      "##utama": 2905,
      "organisasi": 2906,
      "##au": 2907,
      "studi": 2908,
      "por": 2909,
      "melawan": 2910,
      "terbaik": 2911,
      "mur": 2912,
      "##ade": 2913,
      "##andingan": 2914,
      "fak": 2915,
      "sar": 2916,
      "##ela": 2917,
      "ketiga": 2918,
      "##iman": 2919,
      "##yak": 2920,
      "bahkan": 2921,
      "##etahui": 2922,
      "for": 2923,
      "##alnya": 2924,
      "terbentuk": 2925,
      "##adakan": 2926,
      "bin": 2927,
      "posisi": 2928,
      "##akai": 2929,
      "menik": 2930,
      "ekonomi": 2931,
      "del": 2932,
      "##isah": 2933,
      "2015": 2934,
      "api": 2935,
      "##ihan": 2936,
      "##utradara": 2937,
      "alam": 2938,
      "##ey": 2939,
      "##bul": 2940,
      "sepak": 2941,
      "grup": 2942,
      "##ban": 2943,
      "##isar": 2944,
      "febr": 2945,
      "bun": 2946,
      "2006": 2947,
      "lima": 2948,
      "prof": 2949,
      "##iet": 2950,
      "tercatat": 2951,
      "##imal": 2952,
      "##atus": 2953,
      "192": 2954,
      "televisi": 2955,
      "mo": 2956,
      "saja": 2957,
      "kej": 2958,
      "##sep": 2959,
      "dok": 2960,
      "terutama": 2961,
      "21": 2962,
      "buk": 2963,
      "februari": 2964,
      "##amm": 2965,
      "permuk": 2966,
      "pembang": 2967,
      "gunung": 2968,
      "##gen": 2969,
      "mengalami": 2970,
      "bangunan": 2971,
      "pec": 2972,
      "##unt": 2973,
      "##titu": 2974,
      "menyel": 2975,
      "##lo": 2976,
      "rakyat": 2977,
      "##awi": 2978,
      "berar": 2979,
      "raya": 2980,
      "##uatan": 2981,
      "sebelah": 2982,
      "kesel": 2983,
      "suk": 2984,
      "##roduksi": 2985,
      "ditulis": 2986,
      "mul": 2987,
      "bergabung": 2988,
      "##ihak": 2989,
      "2016": 2990,
      "tokoh": 2991,
      "##min": 2992,
      "surat": 2993,
      "bend": 2994,
      "industr": 2995,
      "makanan": 2996,
      "terbesar": 2997,
      "menerima": 2998,
      "hit": 2999,
      "ef": 3000,
      "periode": 3001,
      "lingk": 3002,
      "##ast": 3003,
      "##ron": 3004,
      "##usun": 3005,
      "her": 3006,
      "menulis": 3007,
      "##olusi": 3008,
      "##ampu": 3009,
      "##tra": 3010,
      "##kannya": 3011,
      "##ilihan": 3012,
      "zaman": 3013,
      "##eli": 3014,
      "hi": 3015,
      "sch": 3016,
      "budaya": 3017,
      "nya": 3018,
      "##art": 3019,
      "sesuatu": 3020,
      "##pati": 3021,
      "istilah": 3022,
      "pember": 3023,
      "rata": 3024,
      "pertandingan": 3025,
      "pul": 3026,
      "menunjukkan": 3027,
      "akibat": 3028,
      "unit": 3029,
      "kawasan": 3030,
      "##fa": 3031,
      "##ales": 3032,
      "biasa": 3033,
      "berarti": 3034,
      "penulis": 3035,
      "com": 3036,
      "mengambil": 3037,
      "##adaan": 3038,
      "kegi": 3039,
      "ko": 3040,
      "saud": 3041,
      "##ask": 3042,
      "dimulai": 3043,
      "aj": 3044,
      "##aih": 3045,
      "##ungg": 3046,
      "ken": 3047,
      "gl": 3048,
      "industri": 3049,
      "##tri": 3050,
      "##za": 3051,
      "##ual": 3052,
      "dibangun": 3053,
      "nomor": 3054,
      "awalnya": 3055,
      "bintang": 3056,
      "penj": 3057,
      "##ainan": 3058,
      "kegiatan": 3059,
      "tentara": 3060,
      "##kup": 3061,
      "ped": 3062,
      "prim": 3063,
      "peran": 3064,
      "asia": 3065,
      "24": 3066,
      "##asti": 3067,
      "##inc": 3068,
      "italia": 3069,
      "po": 3070,
      "##embangkan": 3071,
      "kab": 3072,
      "sosial": 3073,
      "##empat": 3074,
      "##ark": 3075,
      "dewan": 3076,
      "##erang": 3077,
      "cont": 3078,
      "mut": 3079,
      "##arnya": 3080,
      "##kr": 3081,
      "22": 3082,
      "sim": 3083,
      "menemukan": 3084,
      "pihak": 3085,
      "mob": 3086,
      "##oni": 3087,
      "kant": 3088,
      "##ts": 3089,
      "rusia": 3090,
      "2005": 3091,
      "##ock": 3092,
      "belum": 3093,
      "##umen": 3094,
      "putri": 3095,
      "hamp": 3096,
      "##of": 3097,
      "meningkat": 3098,
      "##edi": 3099,
      "##aksan": 3100,
      "membentuk": 3101,
      "191": 3102,
      "##ver": 3103,
      "##adem": 3104,
      "cat": 3105,
      "##ork": 3106,
      "##uanya": 3107,
      "##ograf": 3108,
      "he": 3109,
      "##ess": 3110,
      "vid": 3111,
      "seg": 3112,
      "kehidup": 3113,
      "jauh": 3114,
      "jo": 3115,
      "##ona": 3116,
      "produksi": 3117,
      "san": 3118,
      "ps": 3119,
      "##olik": 3120,
      "##empuran": 3121,
      "mata": 3122,
      "cerita": 3123,
      "permukaan": 3124,
      "##iz": 3125,
      "##st": 3126,
      "menjabat": 3127,
      "pembangunan": 3128,
      "pertempuran": 3129,
      "gol": 3130,
      "##gantikan": 3131,
      "kristen": 3132,
      "##ulan": 3133,
      "##ny": 3134,
      "produk": 3135,
      "menikah": 3136,
      "mobil": 3137,
      "mesin": 3138,
      "memas": 3139,
      "##ass": 3140,
      "pand": 3141,
      "##abatan": 3142,
      "##entukan": 3143,
      "terus": 3144,
      "##olog": 3145,
      "kaisar": 3146,
      "sepanjang": 3147,
      "kim": 3148,
      "karier": 3149,
      "##nam": 3150,
      "##encana": 3151,
      "23": 3152,
      "cl": 3153,
      "pendek": 3154,
      "##atasan": 3155,
      "##unuh": 3156,
      "bertem": 3157,
      "##anding": 3158,
      "##engah": 3159,
      "2004": 3160,
      "kematian": 3161,
      "ketua": 3162,
      "undang": 3163,
      "##uruhan": 3164,
      "##erta": 3165,
      "##arap": 3166,
      "warga": 3167,
      "kemen": 3168,
      "100": 3169,
      "arab": 3170,
      "##ikian": 3171,
      "memulai": 3172,
      "##indah": 3173,
      "mad": 3174,
      "distr": 3175,
      "##anjian": 3176,
      "##rat": 3177,
      "jaringan": 3178,
      "daf": 3179,
      "go": 3180,
      "##alaman": 3181,
      "##oto": 3182,
      "perjanjian": 3183,
      "tip": 3184,
      "kebu": 3185,
      "tujuan": 3186,
      "##aha": 3187,
      "##ainkan": 3188,
      "buah": 3189,
      "yunan": 3190,
      "serangan": 3191,
      "##akter": 3192,
      "##ektur": 3193,
      "##ei": 3194,
      "##etak": 3195,
      "contoh": 3196,
      "mic": 3197,
      "melihat": 3198,
      "yunani": 3199,
      "##anyakan": 3200,
      "##lim": 3201,
      "may": 3202,
      "media": 3203,
      "kehidupan": 3204,
      "##yl": 3205,
      "fl": 3206,
      "2017": 3207,
      "kend": 3208,
      "##endah": 3209,
      "mengak": 3210,
      "form": 3211,
      "masalah": 3212,
      "agung": 3213,
      "yakni": 3214,
      "sesuai": 3215,
      "##ii": 3216,
      "daftar": 3217,
      "##irkan": 3218,
      "##uju": 3219,
      "##irim": 3220,
      "##uki": 3221,
      "##ubahan": 3222,
      "hampir": 3223,
      "menghasilkan": 3224,
      "##ungi": 3225,
      "##ore": 3226,
      "##arik": 3227,
      "##ora": 3228,
      "video": 3229,
      "ha": 3230,
      "perc": 3231,
      "dirinya": 3232,
      "##itania": 3233,
      "sc": 3234,
      "##anyi": 3235,
      "##aranya": 3236,
      "##baga": 3237,
      "keseluruhan": 3238,
      "memenangkan": 3239,
      "pemimpin": 3240,
      "##enj": 3241,
      "datang": 3242,
      "penelit": 3243,
      "kini": 3244,
      "saya": 3245,
      "pin": 3246,
      "semak": 3247,
      "berjudul": 3248,
      "##uat": 3249,
      "karakter": 3250,
      "diberikan": 3251,
      "##ite": 3252,
      "belak": 3253,
      "radi": 3254,
      "mampu": 3255,
      "sah": 3256,
      "menuju": 3257,
      "jur": 3258,
      "##tes": 3259,
      "##enang": 3260,
      "hind": 3261,
      "sebanyak": 3262,
      "pad": 3263,
      "badan": 3264,
      "##atuh": 3265,
      "##angga": 3266,
      "uni": 3267,
      "##umum": 3268,
      "##ros": 3269,
      "mengatakan": 3270,
      "gag": 3271,
      "mengikuti": 3272,
      "##ohon": 3273,
      "perubahan": 3274,
      "##ays": 3275,
      "john": 3276,
      "britania": 3277,
      "##takan": 3278,
      "##sed": 3279,
      "##inggu": 3280,
      "kul": 3281,
      "##onia": 3282,
      "ruang": 3283,
      "##igh": 3284,
      "ged": 3285,
      "permainan": 3286,
      "kerja": 3287,
      "##ikit": 3288,
      "pantai": 3289,
      "demikian": 3290,
      "div": 3291,
      "keber": 3292,
      "modern": 3293,
      "op": 3294,
      "kekuasa": 3295,
      "menyebut": 3296,
      "liga": 3297,
      "kontr": 3298,
      "wala": 3299,
      "kitab": 3300,
      "serial": 3301,
      "sas": 3302,
      "sil": 3303,
      "##iti": 3304,
      "tug": 3305,
      "##fat": 3306,
      "membantu": 3307,
      "sedikit": 3308,
      "peris": 3309,
      "mac": 3310,
      "kekuatan": 3311,
      "nilai": 3312,
      "##tudo": 3313,
      "##ampilkan": 3314,
      "##bi": 3315,
      "epis": 3316,
      "membawa": 3317,
      "##arakan": 3318,
      "##tuj": 3319,
      "wis": 3320,
      "##amat": 3321,
      "##jid": 3322,
      "##wak": 3323,
      "mutl": 3324,
      "perjalan": 3325,
      "##pl": 3326,
      "hutan": 3327,
      "melip": 3328,
      "dimana": 3329,
      "ditemui": 3330,
      "keras": 3331,
      "muh": 3332,
      "##ick": 3333,
      "##nitudo": 3334,
      "ex": 3335,
      "ingin": 3336,
      "##isitas": 3337,
      "mew": 3338,
      "teknologi": 3339,
      "meraih": 3340,
      "adanya": 3341,
      "alat": 3342,
      "du": 3343,
      "hid": 3344,
      "allah": 3345,
      "##uktur": 3346,
      "2000": 3347,
      "##yo": 3348,
      "##arian": 3349,
      "##one": 3350,
      "##isaran": 3351,
      "##alahkan": 3352,
      "milik": 3353,
      "semakin": 3354,
      "##alitas": 3355,
      "operasi": 3356,
      "tangan": 3357,
      "depan": 3358,
      "##ji": 3359,
      "rel": 3360,
      "##erd": 3361,
      "kadang": 3362,
      "magnitudo": 3363,
      "##eter": 3364,
      "##oba": 3365,
      "cor": 3366,
      "alk": 3367,
      "##yek": 3368,
      "meliputi": 3369,
      "penggunaan": 3370,
      "putih": 3371,
      "tengg": 3372,
      "##rom": 3373,
      "pasar": 3374,
      "2018": 3375,
      "##tentu": 3376,
      "##tic": 3377,
      "bay": 3378,
      "tertentu": 3379,
      "26": 3380,
      "usia": 3381,
      "ny": 3382,
      "##tin": 3383,
      "lam": 3384,
      "pangeran": 3385,
      "afr": 3386,
      "dom": 3387,
      "##bo": 3388,
      "##ash": 3389,
      "diperk": 3390,
      "pertamanya": 3391,
      "sumat": 3392,
      "##asikan": 3393,
      "elek": 3394,
      "##ganti": 3395,
      "##pada": 3396,
      "apa": 3397,
      "kong": 3398,
      "##engaruh": 3399,
      "27": 3400,
      "eksentr": 3401,
      "jabatan": 3402,
      "kebanyakan": 3403,
      "sta": 3404,
      "piala": 3405,
      "model": 3406,
      "berkembang": 3407,
      "##antung": 3408,
      "lembaga": 3409,
      "merah": 3410,
      "gerakan": 3411,
      "situs": 3412,
      "selalu": 3413,
      "##jo": 3414,
      "##anian": 3415,
      "berupa": 3416,
      "lingkungan": 3417,
      "pur": 3418,
      "penga": 3419,
      "##umumkan": 3420,
      "australia": 3421,
      "##olak": 3422,
      "ayahnya": 3423,
      "jender": 3424,
      "eksentrisitas": 3425,
      "pak": 3426,
      "ol": 3427,
      "katolik": 3428,
      "rendah": 3429,
      "##tasi": 3430,
      "kond": 3431,
      "##osa": 3432,
      "masjid": 3433,
      "daya": 3434,
      "##operasi": 3435,
      "##ase": 3436,
      "uk": 3437,
      "##ulus": 3438,
      "pecahan": 3439,
      "data": 3440,
      "gamb": 3441,
      "##ist": 3442,
      "mutlaknya": 3443,
      "benar": 3444,
      "misalnya": 3445,
      "cal": 3446,
      "2019": 3447,
      "pot": 3448,
      "##landia": 3449,
      "keka": 3450,
      "##turunan": 3451,
      "##ie": 3452,
      "log": 3453,
      "##tuh": 3454,
      "spons": 3455,
      "yah": 3456,
      "##ica": 3457,
      "jenderal": 3458,
      "pemba": 3459,
      "award": 3460,
      "kekaisaran": 3461,
      "drama": 3462,
      "##ins": 3463,
      "##awab": 3464,
      "##anjutnya": 3465,
      "tua": 3466,
      "##ith": 3467,
      "tot": 3468,
      "##usaha": 3469,
      "keturunan": 3470,
      "ses": 3471,
      "##ulkan": 3472,
      "satunya": 3473,
      "##anggung": 3474,
      "selanjutnya": 3475,
      "##ational": 3476,
      "mengaj": 3477,
      "informasi": 3478,
      "fis": 3479,
      "##tiwa": 3480,
      "ta": 3481,
      "daripada": 3482,
      "sultan": 3483,
      "mendirikan": 3484,
      "perdana": 3485,
      "##imana": 3486,
      "wakil": 3487,
      "##ve": 3488,
      "kekuasaan": 3489,
      "##jek": 3490,
      "sisi": 3491,
      "##ice": 3492,
      "##ilia": 3493,
      "diketahui": 3494,
      "##elu": 3495,
      "meter": 3496,
      "diberi": 3497,
      "ho": 3498,
      "2003": 3499,
      "lu": 3500,
      "pemilihan": 3501,
      "28": 3502,
      "con": 3503,
      "sma": 3504,
      "##urahan": 3505,
      "episode": 3506,
      "##impinan": 3507,
      "tamp": 3508,
      "malam": 3509,
      "##apa": 3510,
      "tugas": 3511,
      "asli": 3512,
      "warna": 3513,
      "arm": 3514,
      "##anyol": 3515,
      "berg": 3516,
      "belakang": 3517,
      "##iki": 3518,
      "my": 3519,
      "##ongan": 3520,
      "pt": 3521,
      "##utuskan": 3522,
      "##res": 3523,
      "enam": 3524,
      "##io": 3525,
      "ram": 3526,
      "perjalanan": 3527,
      "##ordi": 3528,
      "kuno": 3529,
      "##iptakan": 3530,
      "##les": 3531,
      "bir": 3532,
      "##andang": 3533,
      "##gaimana": 3534,
      "dise": 3535,
      "##eum": 3536,
      "##elaj": 3537,
      "##atas": 3538,
      "##elengg": 3539,
      "belajar": 3540,
      "sakit": 3541,
      "spanyol": 3542,
      "perh": 3543,
      "##ekerj": 3544,
      "##tum": 3545,
      "guru": 3546,
      "gar": 3547,
      "##sur": 3548,
      "afrika": 3549,
      "##utradarai": 3550,
      "anti": 3551,
      "distrik": 3552,
      "##edia": 3553,
      "et": 3554,
      "walaupun": 3555,
      "primordi": 3556,
      "leg": 3557,
      "##apun": 3558,
      "kelurahan": 3559,
      "primordial": 3560,
      "berikutnya": 3561,
      "##uter": 3562,
      "mor": 3563,
      "kantor": 3564,
      "##ilang": 3565,
      "##ler": 3566,
      "##tion": 3567,
      "tepat": 3568,
      "##tug": 3569,
      "duk": 3570,
      "##angkap": 3571,
      "kuat": 3572,
      "gedung": 3573,
      "aran": 3574,
      "##isimal": 3575,
      "planetisimal": 3576,
      "##alif": 3577,
      "efek": 3578,
      "tv": 3579,
      "##ate": 3580,
      "hong": 3581,
      "sov": 3582,
      "proyek": 3583,
      "muhamm": 3584,
      "##tual": 3585,
      "bek": 3586,
      "diadakan": 3587,
      "bus": 3588,
      "taman": 3589,
      "##pur": 3590,
      "##ment": 3591,
      "penelitian": 3592,
      "gam": 3593,
      "stand": 3594,
      "ot": 3595,
      "sumatra": 3596,
      "berlangsung": 3597,
      "sempat": 3598,
      "##tern": 3599,
      "##ampuan": 3600,
      "meninggalkan": 3601,
      "fa": 3602,
      "##uth": 3603,
      "peristiwa": 3604,
      "kaum": 3605,
      "pertanian": 3606,
      "##intangi": 3607,
      "kalim": 3608,
      "2002": 3609,
      "##ambarkan": 3610,
      "romawi": 3611,
      "##isip": 3612,
      "gaya": 3613,
      "##ania": 3614,
      "##ater": 3615,
      "tam": 3616,
      "50": 3617,
      "##abel": 3618,
      "ham": 3619,
      "2001": 3620,
      "do": 3621,
      "##anjutkan": 3622,
      "memilih": 3623,
      "keter": 3624,
      "tradisional": 3625,
      "##bern": 3626,
      "##aksanakan": 3627,
      "teknik": 3628,
      "ra": 3629,
      "##utusan": 3630,
      "gal": 3631,
      "abd": 3632,
      "##iko": 3633,
      "bank": 3634,
      "kak": 3635,
      "penerbangan": 3636,
      "hew": 3637,
      "##ambah": 3638,
      "mati": 3639,
      "arah": 3640,
      "usaha": 3641,
      "##bar": 3642,
      "soviet": 3643,
      "rev": 3644,
      "penyanyi": 3645,
      "ikan": 3646,
      "##emuan": 3647,
      "pergi": 3648,
      "##qu": 3649,
      "dipimpin": 3650,
      "mantan": 3651,
      "mit": 3652,
      "tep": 3653,
      "mendukung": 3654,
      "isra": 3655,
      "##bert": 3656,
      "bantu": 3657,
      "malays": 3658,
      "lemb": 3659,
      "##tinggi": 3660,
      "cepat": 3661,
      "##ibatkan": 3662,
      "31": 3663,
      "memutuskan": 3664,
      "##egang": 3665,
      "mengk": 3666,
      "lokasi": 3667,
      "barang": 3668,
      "tar": 3669,
      "tulis": 3670,
      "##ayang": 3671,
      "tampil": 3672,
      "tiba": 3673,
      "29": 3674,
      "##rik": 3675,
      "berakhir": 3676,
      "ahli": 3677,
      "malaysia": 3678,
      "##ph": 3679,
      "##oro": 3680,
      "190": 3681,
      "panas": 3682,
      "bup": 3683,
      "bunga": 3684,
      "bak": 3685,
      "##no": 3686,
      "dinasti": 3687,
      "der": 3688,
      "utamanya": 3689,
      "membangun": 3690,
      "##da": 3691,
      "##co": 3692,
      "kondisi": 3693,
      "senj": 3694,
      "total": 3695,
      "##zi": 3696,
      "pindah": 3697,
      "##elas": 3698,
      "kemampuan": 3699,
      "os": 3700,
      "keseh": 3701,
      "##ish": 3702,
      "admin": 3703,
      "##via": 3704,
      "istana": 3705,
      "israel": 3706,
      "iii": 3707,
      "garis": 3708,
      "berisi": 3709,
      "kaki": 3710,
      "kasus": 3711,
      "non": 3712,
      "##fi": 3713,
      "uang": 3714,
      "##ino": 3715,
      "den": 3716,
      "aktif": 3717,
      "hewan": 3718,
      "##atangan": 3719,
      "##egitu": 3720,
      "mand": 3721,
      "##iknya": 3722,
      "fi": 3723,
      "novel": 3724,
      "##ilangan": 3725,
      "begitu": 3726,
      "rad": 3727,
      "##lukan": 3728,
      "keduanya": 3729,
      "debut": 3730,
      "top": 3731,
      "yahudi": 3732,
      "art": 3733,
      "##irip": 3734,
      "lokal": 3735,
      "##atis": 3736,
      "##ubung": 3737,
      "##gus": 3738,
      "berat": 3739,
      "administr": 3740,
      "##akup": 3741,
      "berper": 3742,
      "diproduksi": 3743,
      "##andia": 3744,
      "penyakit": 3745,
      "dita": 3746,
      "saudara": 3747,
      "sus": 3748,
      "##lan": 3749,
      "fes": 3750,
      "komand": 3751,
      "hitam": 3752,
      "senjata": 3753,
      "rah": 3754,
      "1999": 3755,
      "##eluarkan": 3756,
      "##oran": 3757,
      "perp": 3758,
      "mencari": 3759,
      "disutradarai": 3760,
      "##resi": 3761,
      "prod": 3762,
      "jatuh": 3763,
      "##ambahan": 3764,
      "kebij": 3765,
      "kesehatan": 3766,
      "mark": 3767,
      "dah": 3768,
      "tanaman": 3769,
      "pag": 3770,
      "final": 3771,
      "##ley": 3772,
      "##amai": 3773,
      "##ann": 3774,
      "ev": 3775,
      "terpilih": 3776,
      "dag": 3777,
      "##inkan": 3778,
      "uj": 3779,
      "had": 3780,
      "camp": 3781,
      "##ulauan": 3782,
      "batas": 3783,
      "radio": 3784,
      "konf": 3785,
      "bandung": 3786,
      "mesir": 3787,
      "##asiswa": 3788,
      "banj": 3789,
      "york": 3790,
      "##apkan": 3791,
      "tind": 3792,
      "kepulauan": 3793,
      "##amaan": 3794,
      "kompet": 3795,
      "elektr": 3796,
      "memberi": 3797,
      "##sedia": 3798,
      "perg": 3799,
      "pengembangan": 3800,
      "##sh": 3801,
      "struktur": 3802,
      "keputusan": 3803,
      "##ema": 3804,
      "jarak": 3805,
      "keadaan": 3806,
      "teori": 3807,
      "tenggara": 3808,
      "bersi": 3809,
      "inv": 3810,
      "peg": 3811,
      "berdiri": 3812,
      "astr": 3813,
      "dipakai": 3814,
      "memperoleh": 3815,
      "##warna": 3816,
      "gubern": 3817,
      "dewa": 3818,
      "ras": 3819,
      "##ono": 3820,
      "ikut": 3821,
      "museum": 3822,
      "kos": 3823,
      "fungsi": 3824,
      "40": 3825,
      "pohon": 3826,
      "akadem": 3827,
      "##aceae": 3828,
      "tertinggi": 3829,
      "super": 3830,
      "##tival": 3831,
      "ant": 3832,
      "olah": 3833,
      "fo": 3834,
      "##ografi": 3835,
      "##ret": 3836,
      "kot": 3837,
      "##artem": 3838,
      "##burg": 3839,
      "gubernur": 3840,
      "##rasi": 3841,
      "populer": 3842,
      "namanya": 3843,
      "menampilkan": 3844,
      "berwarna": 3845,
      "layanan": 3846,
      "##egori": 3847,
      "festival": 3848,
      "nor": 3849,
      "tangga": 3850,
      "dibentuk": 3851,
      "##har": 3852,
      "##upiter": 3853,
      "bertemu": 3854,
      "sl": 3855,
      "perkembangan": 3856,
      "yes": 3857,
      "##butan": 3858,
      "ener": 3859,
      "seben": 3860,
      "menjel": 3861,
      "sir": 3862,
      "unsur": 3863,
      "dibanding": 3864,
      "int": 3865,
      "aktiv": 3866,
      "##engahan": 3867,
      "##osp": 3868,
      "hab": 3869,
      "##iaya": 3870,
      "juara": 3871,
      "divisi": 3872,
      "pertengahan": 3873,
      "cr": 3874,
      "##ce": 3875,
      "sebenarnya": 3876,
      "singel": 3877,
      "kisah": 3878,
      "ga": 3879,
      "##alkan": 3880,
      "##andung": 3881,
      "##anjung": 3882,
      "ulang": 3883,
      "pu": 3884,
      "institu": 3885,
      "##ez": 3886,
      "189": 3887,
      "sik": 3888,
      "lan": 3889,
      "##askah": 3890,
      "##urus": 3891,
      "##iring": 3892,
      "##omo": 3893,
      "luk": 3894,
      "asp": 3895,
      "babak": 3896,
      "catatan": 3897,
      "char": 3898,
      "dusun": 3899,
      "mun": 3900,
      "##etapkan": 3901,
      "menggantikan": 3902,
      "burung": 3903,
      "##20": 3904,
      "##ner": 3905,
      "penuh": 3906,
      "pria": 3907,
      "sip": 3908,
      "hot": 3909,
      "##bol": 3910,
      "##ingkatan": 3911,
      "##gin": 3912,
      "naskah": 3913,
      "sif": 3914,
      "reg": 3915,
      "populasi": 3916,
      "kebijakan": 3917,
      "antaranya": 3918,
      "##oks": 3919,
      "bantuan": 3920,
      "teman": 3921,
      "pengg": 3922,
      "mencakup": 3923,
      "muslim": 3924,
      "bisnis": 3925,
      "##he": 3926,
      "stadi": 3927,
      "vol": 3928,
      "konsep": 3929,
      "kesul": 3930,
      "pembu": 3931,
      "##aksa": 3932,
      "##ulang": 3933,
      "##unda": 3934,
      "suci": 3935,
      "van": 3936,
      "##itab": 3937,
      "daun": 3938,
      "##gerak": 3939,
      "jadi": 3940,
      "meminta": 3941,
      "muhammad": 3942,
      "##abi": 3943,
      "kop": 3944,
      "kampung": 3945,
      "tapi": 3946,
      "mudah": 3947,
      "##esaikan": 3948,
      "##epatan": 3949,
      "ars": 3950,
      "##eral": 3951,
      "##artemen": 3952,
      "##tuhan": 3953,
      "yo": 3954,
      "sekaligus": 3955,
      "##atnya": 3956,
      "##adilan": 3957,
      "##orn": 3958,
      "gambar": 3959,
      "keju": 3960,
      "##uler": 3961,
      "##amanan": 3962,
      "plat": 3963,
      "##etik": 3964,
      "paus": 3965,
      "##oritas": 3966,
      "kimia": 3967,
      "1990": 3968,
      "menarik": 3969,
      "##ukul": 3970,
      "benda": 3971,
      "##ebar": 3972,
      "ay": 3973,
      "sana": 3974,
      "##ff": 3975,
      "titik": 3976,
      "bro": 3977,
      "objek": 3978,
      "pasangan": 3979,
      "##ria": 3980,
      "minggu": 3981,
      "##agangan": 3982,
      "##iss": 3983,
      "roma": 3984,
      "##raga": 3985,
      "meningkatkan": 3986,
      "##ungkinan": 3987,
      "##go": 3988,
      "##ium": 3989,
      "perdagangan": 3990,
      "segera": 3991,
      "##wi": 3992,
      "hy": 3993,
      "##asif": 3994,
      "budd": 3995,
      "ali": 3996,
      "gad": 3997,
      "mol": 3998,
      "mu": 3999,
      "wor": 4000,
      "pelat": 4001,
      "rem": 4002,
      "##orong": 4003,
      "##baya": 4004,
      "memperk": 4005,
      "hati": 4006,
      "peringkat": 4007,
      "dewasa": 4008,
      "teks": 4009,
      "rasa": 4010,
      "istri": 4011,
      "geor": 4012,
      "aktor": 4013,
      "sd": 4014,
      "##anto": 4015,
      "##bon": 4016,
      "##rah": 4017,
      "perangkat": 4018,
      "bali": 4019,
      "ialah": 4020,
      "menjalan": 4021,
      "ki": 4022,
      "fakul": 4023,
      "kemungkinan": 4024,
      "mot": 4025,
      "pap": 4026,
      "##alahan": 4027,
      "vir": 4028,
      "fasil": 4029,
      "menengah": 4030,
      "##ath": 4031,
      "##ld": 4032,
      "hol": 4033,
      "##elis": 4034,
      "misi": 4035,
      "mempert": 4036,
      "keper": 4037,
      "kategori": 4038,
      "##gala": 4039,
      "pekerj": 4040,
      "gas": 4041,
      "kompl": 4042,
      "diangkat": 4043,
      "konser": 4044,
      "cinta": 4045,
      "##ensis": 4046,
      "zh": 4047,
      "memerint": 4048,
      "yog": 4049,
      "##adian": 4050,
      "pesan": 4051,
      "##adikan": 4052,
      "sese": 4053,
      "alkitab": 4054,
      "ratu": 4055,
      "##itif": 4056,
      "fakultas": 4057,
      "kala": 4058,
      "dif": 4059,
      "##amin": 4060,
      "##ace": 4061,
      "##istrik": 4062,
      "terlihat": 4063,
      "mik": 4064,
      "huru": 4065,
      "komputer": 4066,
      "term": 4067,
      "##aturan": 4068,
      "##ital": 4069,
      "bandar": 4070,
      "memakan": 4071,
      "188": 4072,
      "##ganya": 4073,
      "##ney": 4074,
      "prak": 4075,
      "diak": 4076,
      "pekerjaan": 4077,
      "##uncurkan": 4078,
      "darat": 4079,
      "pelay": 4080,
      "majalah": 4081,
      "berbah": 4082,
      "##ee": 4083,
      "1998": 4084,
      "##unggal": 4085,
      "fasilitas": 4086,
      "penguasa": 4087,
      "##wah": 4088,
      "seseorang": 4089,
      "mengalahkan": 4090,
      "sud": 4091,
      "energi": 4092,
      "prib": 4093,
      "komunitas": 4094,
      "##ancang": 4095,
      "olahraga": 4096,
      "yupiter": 4097,
      "familia": 4098,
      "diambil": 4099,
      "ris": 4100,
      "berf": 4101,
      "stadion": 4102,
      "manaj": 4103,
      "chris": 4104,
      "demok": 4105,
      "##kait": 4106,
      "listrik": 4107,
      "##ajah": 4108,
      "status": 4109,
      "han": 4110,
      "rus": 4111,
      "huruf": 4112,
      "lin": 4113,
      "menolak": 4114,
      "judul": 4115,
      "az": 4116,
      "perlu": 4117,
      "gro": 4118,
      "khas": 4119,
      "pengaruh": 4120,
      "aceh": 4121,
      "##ampilan": 4122,
      "gi": 4123,
      "mahasiswa": 4124,
      "iv": 4125,
      "##uhi": 4126,
      "tujuh": 4127,
      "##acara": 4128,
      "kemenangan": 4129,
      "##arikan": 4130,
      "##lex": 4131,
      "##atuan": 4132,
      "ide": 4133,
      "##anti": 4134,
      "lond": 4135,
      "jawab": 4136,
      "##ahanan": 4137,
      "kalimantan": 4138,
      "araneae": 4139,
      "##erik": 4140,
      "punc": 4141,
      "##andi": 4142,
      "##ilidae": 4143,
      "terkait": 4144,
      "##ral": 4145,
      "##una": 4146,
      "adat": 4147,
      "##iling": 4148,
      "berusaha": 4149,
      "menyerang": 4150,
      "berjalan": 4151,
      "upaya": 4152,
      "let": 4153,
      "##uskan": 4154,
      "upacara": 4155,
      "wal": 4156,
      "##dayaan": 4157,
      "merek": 4158,
      "uskup": 4159,
      "london": 4160,
      "##ungkinkan": 4161,
      "lahan": 4162,
      "profesi": 4163,
      "tindakan": 4164,
      "pernik": 4165,
      "emas": 4166,
      "##men": 4167,
      "##enaga": 4168,
      "merasa": 4169,
      "pela": 4170,
      "##ps": 4171,
      "##enalkan": 4172,
      "cabang": 4173,
      "##yakarta": 4174,
      "mengembangkan": 4175,
      "ver": 4176,
      "124": 4177,
      "keempat": 4178,
      "bent": 4179,
      "merilis": 4180,
      "##uruan": 4181,
      "##encan": 4182,
      "tanda": 4183,
      "membu": 4184,
      "lel": 4185,
      "dibintangi": 4186,
      "##ekan": 4187,
      "##irakan": 4188,
      "publik": 4189,
      "mengirim": 4190,
      "##bangkan": 4191,
      "kulit": 4192,
      "edisi": 4193,
      "##ekaan": 4194,
      "##ikasikan": 4195,
      "pengguna": 4196,
      "bas": 4197,
      "00": 4198,
      "##erita": 4199,
      "##tuhkan": 4200,
      "pernikahan": 4201,
      "##din": 4202,
      "yogyakarta": 4203,
      "##isa": 4204,
      "##50": 4205,
      "##yi": 4206,
      "##uman": 4207,
      "melanjutkan": 4208,
      "metode": 4209,
      "##udukan": 4210,
      "##bah": 4211,
      "bebas": 4212,
      "asam": 4213,
      "ng": 4214,
      "rencana": 4215,
      "umat": 4216,
      "park": 4217,
      "rangka": 4218,
      "pab": 4219,
      "##ck": 4220,
      "berbentuk": 4221,
      "##ys": 4222,
      "mengubah": 4223,
      "hen": 4224,
      "##asia": 4225,
      "1980": 4226,
      "singap": 4227,
      "smp": 4228,
      "##rig": 4229,
      "##engaruhi": 4230,
      "lew": 4231,
      "temb": 4232,
      "##oth": 4233,
      "terlibat": 4234,
      "##tal": 4235,
      "standar": 4236,
      "ref": 4237,
      "menghadap": 4238,
      "##iau": 4239,
      "mencoba": 4240,
      "pah": 4241,
      "menand": 4242,
      "##let": 4243,
      "kemerd": 4244,
      "mirip": 4245,
      "tor": 4246,
      "world": 4247,
      "pil": 4248,
      "dikembangkan": 4249,
      "web": 4250,
      "##tup": 4251,
      "fin": 4252,
      "keus": 4253,
      "ukuran": 4254,
      "##sigen": 4255,
      "sifat": 4256,
      "tom": 4257,
      "memimpin": 4258,
      "kemerdekaan": 4259,
      "##ram": 4260,
      "##ood": 4261,
      "darah": 4262,
      "##yp": 4263,
      "khususnya": 4264,
      "abdul": 4265,
      "teg": 4266,
      "terbuka": 4267,
      "alasan": 4268,
      "##tikel": 4269,
      "##lemen": 4270,
      "perse": 4271,
      "jelas": 4272,
      "yesus": 4273,
      "##ool": 4274,
      "keamanan": 4275,
      "tunggal": 4276,
      "siap": 4277,
      "keuskup": 4278,
      "mengumumkan": 4279,
      "filip": 4280,
      "nat": 4281,
      "##tro": 4282,
      "##yangkan": 4283,
      "oksigen": 4284,
      "city": 4285,
      "##uksi": 4286,
      "##edaan": 4287,
      "tumbuh": 4288,
      "desain": 4289,
      "comp": 4290,
      "keuskupan": 4291,
      "dijadikan": 4292,
      "dibandingkan": 4293,
      "pej": 4294,
      "suh": 4295,
      "##asinya": 4296,
      "elektron": 4297,
      "fed": 4298,
      "##etahuan": 4299,
      "minyak": 4300,
      "adi": 4301,
      "abu": 4302,
      "tro": 4303,
      "##impi": 4304,
      "kode": 4305,
      "belas": 4306,
      "bet": 4307,
      "##ebut": 4308,
      "##erahkan": 4309,
      "membunuh": 4310,
      "##ty": 4311,
      "wh": 4312,
      "##liam": 4313,
      "strat": 4314,
      "kompetisi": 4315,
      "win": 4316,
      "latin": 4317,
      "rock": 4318,
      "##atang": 4319,
      "##lin": 4320,
      "berusia": 4321,
      "cy": 4322,
      "mi": 4323,
      "##agam": 4324,
      "##sus": 4325,
      "##abor": 4326,
      "gagal": 4327,
      "kepem": 4328,
      "memungkinkan": 4329,
      "##apor": 4330,
      "ibunya": 4331,
      "dav": 4332,
      "1997": 4333,
      "sura": 4334,
      "lang": 4335,
      "tambahan": 4336,
      "departemen": 4337,
      "hel": 4338,
      "dial": 4339,
      "seles": 4340,
      "pred": 4341,
      "murid": 4342,
      "produs": 4343,
      "##onton": 4344,
      "##tugas": 4345,
      "sab": 4346,
      "bila": 4347,
      "asing": 4348,
      "##antik": 4349,
      "##inggian": 4350,
      "sri": 4351,
      "##tain": 4352,
      "nus": 4353,
      "##ongia": 4354,
      "pimpinan": 4355,
      "##ku": 4356,
      "##enia": 4357,
      "##hana": 4358,
      "500": 4359,
      "perbedaan": 4360,
      "pribadi": 4361,
      "kebudayaan": 4362,
      "##uhnya": 4363,
      "menciptakan": 4364,
      "##de": 4365,
      "##uasai": 4366,
      "bertahan": 4367,
      "tni": 4368,
      "berbasis": 4369,
      "ton": 4370,
      "sec": 4371,
      "##estasi": 4372,
      "##buran": 4373,
      "##umpang": 4374,
      "##ahankan": 4375,
      "tenaga": 4376,
      "glob": 4377,
      "##ence": 4378,
      "tuhan": 4379,
      "wisata": 4380,
      "##istan": 4381,
      "ketinggian": 4382,
      "kendaraan": 4383,
      "aku": 4384,
      "##itasi": 4385,
      "##namen": 4386,
      "rut": 4387,
      "william": 4388,
      "parlemen": 4389,
      "##patkan": 4390,
      "pengetahuan": 4391,
      "##isahkan": 4392,
      "##iksi": 4393,
      "sig": 4394,
      "##ean": 4395,
      "mc": 4396,
      "##lik": 4397,
      "gug": 4398,
      "surabaya": 4399,
      "sukses": 4400,
      "##tim": 4401,
      "##amakan": 4402,
      "diam": 4403,
      "##ex": 4404,
      "##yataan": 4405,
      "##asta": 4406,
      "kac": 4407,
      "dimiliki": 4408,
      "rat": 4409,
      "aliran": 4410,
      "tulisan": 4411,
      "tai": 4412,
      "kelah": 4413,
      "mang": 4414,
      "##osisi": 4415,
      "##icara": 4416,
      "peserta": 4417,
      "obat": 4418,
      "##akaian": 4419,
      "sastra": 4420,
      "danau": 4421,
      "artis": 4422,
      "av": 4423,
      "##impan": 4424,
      "pri": 4425,
      "##hoa": 4426,
      "dahulu": 4427,
      "bersifat": 4428,
      "komunikasi": 4429,
      "dpr": 4430,
      "##ras": 4431,
      "berita": 4432,
      "##enti": 4433,
      "pertahanan": 4434,
      "##bil": 4435,
      "selesai": 4436,
      "kad": 4437,
      "##ceae": 4438,
      "187": 4439,
      "##tian": 4440,
      "##ajak": 4441,
      "eur": 4442,
      "##wal": 4443,
      "dukungan": 4444,
      "mengandung": 4445,
      "siswa": 4446,
      "##tein": 4447,
      "saw": 4448,
      "bergerak": 4449,
      "land": 4450,
      "tionghoa": 4451,
      "##uluh": 4452,
      "era": 4453,
      "##unjuk": 4454,
      "berperan": 4455,
      "##osis": 4456,
      "kanada": 4457,
      "##ke": 4458,
      "terbang": 4459,
      "turut": 4460,
      "semb": 4461,
      "medan": 4462,
      "##amkan": 4463,
      "##ferensi": 4464,
      "sulaw": 4465,
      "vok": 4466,
      "singapura": 4467,
      "sulawesi": 4468,
      "sak": 4469,
      "kalangan": 4470,
      "##pir": 4471,
      "##uga": 4472,
      "##ding": 4473,
      "keu": 4474,
      "bukit": 4475,
      "polisi": 4476,
      "##laim": 4477,
      "membuka": 4478,
      "mask": 4479,
      "##untu": 4480,
      "##jau": 4481,
      "banjar": 4482,
      "ditayangkan": 4483,
      "sol": 4484,
      "##likasi": 4485,
      "60": 4486,
      "imam": 4487,
      "##zim": 4488,
      "terlalu": 4489,
      "pelabuhan": 4490,
      "##emat": 4491,
      "diny": 4492,
      "petani": 4493,
      "pam": 4494,
      "##unungan": 4495,
      "##umur": 4496,
      "serangga": 4497,
      "diant": 4498,
      "tersedia": 4499,
      "eng": 4500,
      "##tris": 4501,
      "tari": 4502,
      "lapangan": 4503,
      "1996": 4504,
      "##ahun": 4505,
      "##ospongia": 4506,
      "berbatasan": 4507,
      "ung": 4508,
      "dibu": 4509,
      "korban": 4510,
      "aktivitas": 4511,
      "##ampung": 4512,
      "polandia": 4513,
      "mari": 4514,
      "rekaman": 4515,
      "##aji": 4516,
      "pertemuan": 4517,
      "dipilih": 4518,
      "pegunungan": 4519,
      "##ujan": 4520,
      "dibagi": 4521,
      "regi": 4522,
      "biaya": 4523,
      "diselengg": 4524,
      "keuangan": 4525,
      "##ipta": 4526,
      "red": 4527,
      "lengk": 4528,
      "##ling": 4529,
      "meski": 4530,
      "angka": 4531,
      "revolusi": 4532,
      "tet": 4533,
      "situ": 4534,
      "mengur": 4535,
      "cur": 4536,
      "##ayani": 4537,
      "lo": 4538,
      "diselenggarakan": 4539,
      "##yn": 4540,
      "star": 4541,
      "1970": 4542,
      "##48": 4543,
      "menyelesaikan": 4544,
      "menit": 4545,
      "koloni": 4546,
      "turki": 4547,
      "international": 4548,
      "ujung": 4549,
      "pukul": 4550,
      "mewak": 4551,
      "saluran": 4552,
      "kud": 4553,
      "1995": 4554,
      "turun": 4555,
      "##ujud": 4556,
      "##sch": 4557,
      "tri": 4558,
      "##rit": 4559,
      "##awanan": 4560,
      "kil": 4561,
      "menggambarkan": 4562,
      "##uali": 4563,
      "penumpang": 4564,
      "pembuatan": 4565,
      "mahk": 4566,
      "maria": 4567,
      "disi": 4568,
      "##ance": 4569,
      "##ene": 4570,
      "##eld": 4571,
      "bol": 4572,
      "you": 4573,
      "penju": 4574,
      "##onis": 4575,
      "##gia": 4576,
      "ros": 4577,
      "##empatan": 4578,
      "ni": 4579,
      "studio": 4580,
      "##ediakan": 4581,
      "single": 4582,
      "padang": 4583,
      "cm": 4584,
      "bupati": 4585,
      "##jana": 4586,
      "##ominasi": 4587,
      "##ius": 4588,
      "##ester": 4589,
      "menyediakan": 4590,
      "generasi": 4591,
      "roh": 4592,
      "hip": 4593,
      "dibuka": 4594,
      "##isten": 4595,
      "##ran": 4596,
      "filipina": 4597,
      "35": 4598,
      "melayu": 4599,
      "memainkan": 4600,
      "##asik": 4601,
      "delapan": 4602,
      "alex": 4603,
      "##uel": 4604,
      "##aporkan": 4605,
      "bukti": 4606,
      "##kop": 4607,
      "kebutuhan": 4608,
      "turnamen": 4609,
      "kepad": 4610,
      "kritik": 4611,
      "agresi": 4612,
      "##ukuran": 4613,
      "bandara": 4614,
      "kompleks": 4615,
      "arsit": 4616,
      "dokumen": 4617,
      "bap": 4618,
      "tab": 4619,
      "##yan": 4620,
      "##pan": 4621,
      "##abila": 4622,
      "perwak": 4623,
      "186": 4624,
      "pejabat": 4625,
      "naik": 4626,
      "##ide": 4627,
      "materi": 4628,
      "his": 4629,
      "paris": 4630,
      "##edakan": 4631,
      "##ajaran": 4632,
      "mewakili": 4633,
      "##esis": 4634,
      "seder": 4635,
      "##alisasi": 4636,
      "formula": 4637,
      "berc": 4638,
      "puncak": 4639,
      "penampilan": 4640,
      "demospongia": 4641,
      "##ham": 4642,
      "cah": 4643,
      "demospongiae": 4644,
      "##tujuan": 4645,
      "##engar": 4646,
      "##zo": 4647,
      "1994": 4648,
      "pabrik": 4649,
      "##eth": 4650,
      "##okus": 4651,
      "perint": 4652,
      "sipil": 4653,
      "buddha": 4654,
      "reaksi": 4655,
      "##ulasi": 4656,
      "val": 4657,
      "##oko": 4658,
      "pendukung": 4659,
      "memasuki": 4660,
      "hotel": 4661,
      "dend": 4662,
      "lep": 4663,
      "end": 4664,
      "##alus": 4665,
      "wali": 4666,
      "profesional": 4667,
      "##mer": 4668,
      "aktris": 4669,
      "1992": 4670,
      "mengetahui": 4671,
      "##ancurkan": 4672,
      "bon": 4673,
      "peraturan": 4674,
      "##tanan": 4675,
      "##ontakan": 4676,
      "dj": 4677,
      "mengadakan": 4678,
      "qu": 4679,
      "hindia": 4680,
      "kod": 4681,
      "##ujuk": 4682,
      "##alisme": 4683,
      "diikuti": 4684,
      "##iskan": 4685,
      "segala": 4686,
      "putr": 4687,
      "##unjukan": 4688,
      "##ombang": 4689,
      "konstitu": 4690,
      "pemberontakan": 4691,
      "lulus": 4692,
      "hujan": 4693,
      "##way": 4694,
      "calon": 4695,
      "kalinya": 4696,
      "##ight": 4697,
      "lun": 4698,
      "menyer": 4699,
      "diperkirakan": 4700,
      "##uji": 4701,
      "menyerap": 4702,
      "perwakilan": 4703,
      "james": 4704,
      "aplikasi": 4705,
      "vari": 4706,
      "##ivid": 4707,
      "##isir": 4708,
      "##itung": 4709,
      "1960": 4710,
      "penduduknya": 4711,
      "##uf": 4712,
      "##ektar": 4713,
      "menjadikan": 4714,
      "memang": 4715,
      "liv": 4716,
      "prop": 4717,
      "kecepatan": 4718,
      "##erit": 4719,
      "fir": 4720,
      "day": 4721,
      "##arapan": 4722,
      "apabila": 4723,
      "cir": 4724,
      "perbatasan": 4725,
      "dilaksanakan": 4726,
      "##yu": 4727,
      "sutradara": 4728,
      "##ambahkan": 4729,
      "kontes": 4730,
      "rec": 4731,
      "enter": 4732,
      "tipe": 4733,
      "##zh": 4734,
      "##ato": 4735,
      "##oma": 4736,
      "ajaran": 4737,
      "terbagi": 4738,
      "##dow": 4739,
      "individ": 4740,
      "austria": 4741,
      "tew": 4742,
      "memakai": 4743,
      "menjelaskan": 4744,
      "##ayakan": 4745,
      "##aga": 4746,
      "##ahu": 4747,
      "pras": 4748,
      "##bia": 4749,
      "##iah": 4750,
      "1945": 4751,
      "##aru": 4752,
      "senya": 4753,
      "##anye": 4754,
      "##inisi": 4755,
      "##itis": 4756,
      "def": 4757,
      "kami": 4758,
      "all": 4759,
      "1993": 4760,
      "##rilus": 4761,
      "agrilus": 4762,
      "lint": 4763,
      "saling": 4764,
      "terny": 4765,
      "##ersial": 4766,
      "##pe": 4767,
      "off": 4768,
      "ternyata": 4769,
      "##lum": 4770,
      "kesultanan": 4771,
      "##iam": 4772,
      "##elar": 4773,
      "menang": 4774,
      "direktur": 4775,
      "##unjung": 4776,
      "puluh": 4777,
      "perguruan": 4778,
      "awards": 4779,
      "rh": 4780,
      "dingin": 4781,
      "jemb": 4782,
      "##ajib": 4783,
      "pintu": 4784,
      "benteng": 4785,
      "##ement": 4786,
      "32": 4787,
      "berpend": 4788,
      "##adah": 4789,
      "area": 4790,
      "net": 4791,
      "don": 4792,
      "##ale": 4793,
      "pemenang": 4794,
      "vi": 4795,
      "tahu": 4796,
      "##anta": 4797,
      "aksi": 4798,
      "diterima": 4799,
      "##illa": 4800,
      "fitur": 4801,
      "adipati": 4802,
      "ataupun": 4803,
      "kejuaraan": 4804,
      "berbahasa": 4805,
      "senyawa": 4806,
      "##po": 4807,
      "mm": 4808,
      "##onen": 4809,
      "ass": 4810,
      "##akah": 4811,
      "1991": 4812,
      "mayoritas": 4813,
      "kelahiran": 4814,
      "bes": 4815,
      "##chi": 4816,
      "kecuali": 4817,
      "motor": 4818,
      "tahap": 4819,
      "##ibusi": 4820,
      "bekas": 4821,
      "fisik": 4822,
      "percaya": 4823,
      "menging": 4824,
      "##engkapi": 4825,
      "kira": 4826,
      "##emahan": 4827,
      "##ost": 4828,
      "digital": 4829,
      "ts": 4830,
      "makam": 4831,
      "##krip": 4832,
      "##ologis": 4833,
      "##urat": 4834,
      "mempertahankan": 4835,
      "mengeluarkan": 4836,
      "##use": 4837,
      "sain": 4838,
      "##elola": 4839,
      "pembentukan": 4840,
      "##den": 4841,
      "digantikan": 4842,
      "harga": 4843,
      "beg": 4844,
      "kehilangan": 4845,
      "##ven": 4846,
      "bos": 4847,
      "mili": 4848,
      "terbatas": 4849,
      "artinya": 4850,
      "nag": 4851,
      "we": 4852,
      "##mar": 4853,
      "##omba": 4854,
      "tertu": 4855,
      "bagaimana": 4856,
      "kejadian": 4857,
      "cahaya": 4858,
      "suhu": 4859,
      "pari": 4860,
      "arg": 4861,
      "##red": 4862,
      "pengadilan": 4863,
      "##amatkan": 4864,
      "tewas": 4865,
      "##ella": 4866,
      "##tun": 4867,
      "setempat": 4868,
      "##indahkan": 4869,
      "bakar": 4870,
      "inj": 4871,
      "maks": 4872,
      "##ikiran": 4873,
      "macam": 4874,
      "perw": 4875,
      "pendiri": 4876,
      "wang": 4877,
      "gre": 4878,
      "cap": 4879,
      "##pi": 4880,
      "##uduki": 4881,
      "##atasi": 4882,
      "pep": 4883,
      "##ewa": 4884,
      "##ohan": 4885,
      "bh": 4886,
      "alih": 4887,
      "agresif": 4888,
      "predator": 4889,
      "swasta": 4890,
      "80": 4891,
      "jembatan": 4892,
      "##indungi": 4893,
      "fer": 4894,
      "perhatian": 4895,
      "menganggap": 4896,
      "sekret": 4897,
      "##ko": 4898,
      "##ail": 4899,
      "aks": 4900,
      "pac": 4901,
      "hilang": 4902,
      "kontrak": 4903,
      "##terian": 4904,
      "rob": 4905,
      "lov": 4906,
      "##yanya": 4907,
      "1950": 4908,
      "##ubungkan": 4909,
      "##truksi": 4910,
      "##unjungi": 4911,
      "##rid": 4912,
      "dimas": 4913,
      "##ekat": 4914,
      "##osiasi": 4915,
      "pandangan": 4916,
      "viet": 4917,
      "miss": 4918,
      "dikar": 4919,
      "lewat": 4920,
      "##form": 4921,
      "##inj": 4922,
      "merujuk": 4923,
      "mencetak": 4924,
      "##lar": 4925,
      "phil": 4926,
      "menghadapi": 4927,
      "##anggil": 4928,
      "diantaranya": 4929,
      "##oli": 4930,
      "laporan": 4931,
      "##eles": 4932,
      "##olis": 4933,
      "anj": 4934,
      "logam": 4935,
      "internet": 4936,
      "say": 4937,
      "lim": 4938,
      "##lus": 4939,
      "berumur": 4940,
      "sisa": 4941,
      "gab": 4942,
      "tata": 4943,
      "kuil": 4944,
      "##car": 4945,
      "disebabkan": 4946,
      "##bb": 4947,
      "university": 4948,
      "kand": 4949,
      "faktor": 4950,
      "ven": 4951,
      "bor": 4952,
      "##kar": 4953,
      "##luk": 4954,
      "massa": 4955,
      "sebagaimana": 4956,
      "nabi": 4957,
      "beroperasi": 4958,
      "##ude": 4959,
      "##by": 4960,
      "##enter": 4961,
      "kabar": 4962,
      "atom": 4963,
      "##sk": 4964,
      "##rus": 4965,
      "##urn": 4966,
      "##utar": 4967,
      "tanjung": 4968,
      "cina": 4969,
      "##isipasi": 4970,
      "##elajari": 4971,
      "nep": 4972,
      "transpor": 4973,
      "far": 4974,
      "hijau": 4975,
      "myc": 4976,
      "##imen": 4977,
      "##faatkan": 4978,
      "dian": 4979,
      "istr": 4980,
      "sulit": 4981,
      "yay": 4982,
      "##ander": 4983,
      "##esm": 4984,
      "jasa": 4985,
      "tuan": 4986,
      "##enda": 4987,
      "45": 4988,
      "menentukan": 4989,
      "kementerian": 4990,
      "##ahat": 4991,
      "tekan": 4992,
      "rump": 4993,
      "buatan": 4994,
      "pengan": 4995,
      "sebutan": 4996,
      "gor": 4997,
      "pra": 4998,
      "music": 4999,
      "ditetapkan": 5000,
      "##mad": 5001,
      "##ugh": 5002,
      "penjualan": 5003,
      "##impiade": 5004,
      "##ambat": 5005,
      "bant": 5006,
      "foto": 5007,
      "##ych": 5008,
      "##eidae": 5009,
      "kesempatan": 5010,
      "potensi": 5011,
      "berjumlah": 5012,
      "direk": 5013,
      "##ayan": 5014,
      "##entikan": 5015,
      "##aju": 5016,
      "70": 5017,
      "hom": 5018,
      "##elak": 5019,
      "jurn": 5020,
      "pertunjukan": 5021,
      "gadis": 5022,
      "pasal": 5023,
      "##enakan": 5024,
      "kursi": 5025,
      "##berg": 5026,
      "simbol": 5027,
      "##atangani": 5028,
      "difusi": 5029,
      "##alin": 5030,
      "david": 5031,
      "dilihat": 5032,
      "sayap": 5033,
      "kiri": 5034,
      "##rani": 5035,
      "lengkap": 5036,
      "makanannya": 5037,
      "##eon": 5038,
      "melew": 5039,
      "melayani": 5040,
      "karyanya": 5041,
      "konflik": 5042,
      "##unkan": 5043,
      "pertum": 5044,
      "berkata": 5045,
      "##uddin": 5046,
      "istrinya": 5047,
      "grand": 5048,
      "memenuhi": 5049,
      "##angat": 5050,
      "pemuda": 5051,
      "ciri": 5052,
      "dana": 5053,
      "nuk": 5054,
      "komisi": 5055,
      "##caya": 5056,
      "##insip": 5057,
      "dokter": 5058,
      "norm": 5059,
      "peningkatan": 5060,
      "tema": 5061,
      "manajemen": 5062,
      "bersa": 5063,
      "##ometer": 5064,
      "##istik": 5065,
      "komandan": 5066,
      "disingkat": 5067,
      "##okan": 5068,
      "33": 5069,
      "memegang": 5070,
      "##antara": 5071,
      "##hael": 5072,
      "##ary": 5073,
      "##her": 5074,
      "##alem": 5075,
      "rp": 5076,
      "dikirim": 5077,
      "##vi": 5078,
      "##eliling": 5079,
      "memperl": 5080,
      "##uma": 5081,
      "##egah": 5082,
      "##ajur": 5083,
      "##opsi": 5084,
      "##arat": 5085,
      "satelit": 5086,
      "##alisis": 5087,
      "sederhana": 5088,
      "vietnam": 5089,
      "##irian": 5090,
      "satuan": 5091,
      "konv": 5092,
      "##eritakan": 5093,
      "united": 5094,
      "##erus": 5095,
      "##ume": 5096,
      "berpori": 5097,
      "miliar": 5098,
      "prinsip": 5099,
      "yayasan": 5100,
      "##bulkan": 5101,
      "##ental": 5102,
      "mengund": 5103,
      "##oman": 5104,
      "##atik": 5105,
      "olimpiade": 5106,
      "tekanan": 5107,
      "36": 5108,
      "daging": 5109,
      "##age": 5110,
      "dev": 5111,
      "perintah": 5112,
      "##awar": 5113,
      "maskapai": 5114,
      "##angkah": 5115,
      "musuh": 5116,
      "konstitusi": 5117,
      "1989": 5118,
      "##ort": 5119,
      "terpisah": 5120,
      "##iro": 5121,
      "bangs": 5122,
      "bertugas": 5123,
      "##turan": 5124,
      "memproduksi": 5125,
      "##tifikasi": 5126,
      "academ": 5127,
      "ribu": 5128,
      "##uang": 5129,
      "disebutkan": 5130,
      "##ampak": 5131,
      "sepuluh": 5132,
      "##osh": 5133,
      "keluarganya": 5134,
      "demi": 5135,
      "berfungsi": 5136,
      "armada": 5137,
      "semarang": 5138,
      "nar": 5139,
      "kebang": 5140,
      "praktik": 5141,
      "lev": 5142,
      "paul": 5143,
      "pertumbuhan": 5144,
      "insting": 5145,
      "tik": 5146,
      "solo": 5147,
      "tw": 5148,
      "dihasilkan": 5149,
      "##omi": 5150,
      "##okasi": 5151,
      "membuatnya": 5152,
      "astrag": 5153,
      "sebab": 5154,
      "astragalus": 5155,
      "##otr": 5156,
      "##adinya": 5157,
      "brasil": 5158,
      "teluk": 5159,
      "kanan": 5160,
      "diluncurkan": 5161,
      "berhubungan": 5162,
      "##ikir": 5163,
      "##ebasan": 5164,
      "##baikan": 5165,
      "bangk": 5166,
      "sid": 5167,
      "global": 5168,
      "keberadaan": 5169,
      "##usnya": 5170,
      "dirancang": 5171,
      "##ille": 5172,
      "ip": 5173,
      "##ear": 5174,
      "##operasikan": 5175,
      "##sen": 5176,
      "demokrat": 5177,
      "akademi": 5178,
      "##irinya": 5179,
      "asilidae": 5180,
      "300": 5181,
      "##atikan": 5182,
      "individu": 5183,
      "##reg": 5184,
      "peter": 5185,
      "##onel": 5186,
      "kariernya": 5187,
      "group": 5188,
      "##nan": 5189,
      "rich": 5190,
      "robert": 5191,
      "pekerja": 5192,
      "##agang": 5193,
      "##der": 5194,
      "##cayaan": 5195,
      "sarana": 5196,
      "kampanye": 5197,
      "son": 5198,
      "##bal": 5199,
      "persia": 5200,
      "majelis": 5201,
      "dataran": 5202,
      "dewi": 5203,
      "dikatakan": 5204,
      "##amping": 5205,
      "kalah": 5206,
      "##get": 5207,
      "##asaan": 5208,
      "##esh": 5209,
      "##ukai": 5210,
      "##nu": 5211,
      "##ks": 5212,
      "tol": 5213,
      "##unggu": 5214,
      "pesisir": 5215,
      "komedi": 5216,
      "entertain": 5217,
      "pelayanan": 5218,
      "saham": 5219,
      "##ainya": 5220,
      "sekutu": 5221,
      "pemilik": 5222,
      "mengurangi": 5223,
      "halaman": 5224,
      "teater": 5225,
      "samping": 5226,
      "nik": 5227,
      "lebar": 5228,
      "layar": 5229,
      "##intaan": 5230,
      "champ": 5231,
      "hadi": 5232,
      "anaknya": 5233,
      "senior": 5234,
      "roy": 5235,
      "tiap": 5236,
      "##arawan": 5237,
      "berkeb": 5238,
      "##umpulkan": 5239,
      "bomb": 5240,
      "hongaria": 5241,
      "##untungan": 5242,
      "jul": 5243,
      "len": 5244,
      "perwira": 5245,
      "##ero": 5246,
      "skor": 5247,
      "cuc": 5248,
      "##cu": 5249,
      "##lat": 5250,
      "##gaw": 5251,
      "melibatkan": 5252,
      "##akuan": 5253,
      "dibawa": 5254,
      "jurusan": 5255,
      "comm": 5256,
      "##aksud": 5257,
      "##be": 5258,
      "##anji": 5259,
      "berhenti": 5260,
      "kuning": 5261,
      "peral": 5262,
      "swedia": 5263,
      "melewati": 5264,
      "menara": 5265,
      "law": 5266,
      "mekan": 5267,
      "hor": 5268,
      "ditand": 5269,
      "kepercayaan": 5270,
      "##gar": 5271,
      "komunis": 5272,
      "pangk": 5273,
      "##umsi": 5274,
      "mula": 5275,
      "ayat": 5276,
      "##ilu": 5277,
      "apol": 5278,
      "hindu": 5279,
      "aman": 5280,
      "90": 5281,
      "toko": 5282,
      "jaya": 5283,
      "kn": 5284,
      "charles": 5285,
      "entertainment": 5286,
      "##kin": 5287,
      "terbuat": 5288,
      "apakah": 5289,
      "##que": 5290,
      "george": 5291,
      "##iyah": 5292,
      "school": 5293,
      "pakaian": 5294,
      "protes": 5295,
      "ajang": 5296,
      "##itkan": 5297,
      "setengah": 5298,
      "dol": 5299,
      "bersamaan": 5300,
      "kopi": 5301,
      "resolusi": 5302,
      "##anyikan": 5303,
      "balik": 5304,
      "##ped": 5305,
      "##endali": 5306,
      "sehari": 5307,
      "waf": 5308,
      "luc": 5309,
      "patung": 5310,
      "pilihan": 5311,
      "positif": 5312,
      "##ophyl": 5313,
      "lou": 5314,
      "panggung": 5315,
      "##acam": 5316,
      "##erangan": 5317,
      "but": 5318,
      "nas": 5319,
      "produser": 5320,
      "1988": 5321,
      "injil": 5322,
      "menguasai": 5323,
      "##ajurit": 5324,
      "##nif": 5325,
      "karang": 5326,
      "klasik": 5327,
      "tepatnya": 5328,
      "gir": 5329,
      "boy": 5330,
      "china": 5331,
      "urutan": 5332,
      "gelombang": 5333,
      "ele": 5334,
      "##ward": 5335,
      "prajurit": 5336,
      "sarjana": 5337,
      "fc": 5338,
      "##tv": 5339,
      "##mo": 5340,
      "academy": 5341,
      "intel": 5342,
      "sad": 5343,
      "anda": 5344,
      "pok": 5345,
      "##ankan": 5346,
      "##asang": 5347,
      "##asitas": 5348,
      "inilah": 5349,
      "lukisan": 5350,
      "artikel": 5351,
      "cit": 5352,
      "##pirasi": 5353,
      "bendera": 5354,
      "play": 5355,
      "kalau": 5356,
      "komponen": 5357,
      "irlandia": 5358,
      "##ornia": 5359,
      "ibrani": 5360,
      "##apatan": 5361,
      "##sual": 5362,
      "can": 5363,
      "##imbulkan": 5364,
      "##ican": 5365,
      "suka": 5366,
      "menjaga": 5367,
      "menempati": 5368,
      "papua": 5369,
      "##orium": 5370,
      "ident": 5371,
      "pemeran": 5372,
      "penonton": 5373,
      "sekretaris": 5374,
      "dile": 5375,
      "mendorong": 5376,
      "akses": 5377,
      "lee": 5378,
      "calif": 5379,
      "##olongan": 5380,
      "##ker": 5381,
      "##zz": 5382,
      "dipl": 5383,
      "##10": 5384,
      "komersial": 5385,
      "sektor": 5386,
      "##uw": 5387,
      "raj": 5388,
      "semen": 5389,
      "hend": 5390,
      "##aitan": 5391,
      "thail": 5392,
      "##iner": 5393,
      "thailand": 5394,
      "dulu": 5395,
      "molek": 5396,
      "##agi": 5397,
      "##cing": 5398,
      "administrasi": 5399,
      "alami": 5400,
      "tempur": 5401,
      "##pu": 5402,
      "1986": 5403,
      "##jaga": 5404,
      "pera": 5405,
      "jangka": 5406,
      "thom": 5407,
      "dilengkapi": 5408,
      "tertua": 5409,
      "##angsaan": 5410,
      "biru": 5411,
      "##mark": 5412,
      "besi": 5413,
      "rute": 5414,
      "##jual": 5415,
      "eksek": 5416,
      "##alang": 5417,
      "##akkan": 5418,
      "memerintah": 5419,
      "menyebutkan": 5420,
      "diperlukan": 5421,
      "##juangan": 5422,
      "samud": 5423,
      "hidro": 5424,
      "mos": 5425,
      "mund": 5426,
      "nominasi": 5427,
      "mengal": 5428,
      "sembilan": 5429,
      "puisi": 5430,
      "##ory": 5431,
      "mr": 5432,
      "national": 5433,
      "santo": 5434,
      "##amaian": 5435,
      "tampak": 5436,
      "california": 5437,
      "##bau": 5438,
      "vic": 5439,
      "##udara": 5440,
      "##oki": 5441,
      "lanjut": 5442,
      "##adopsi": 5443,
      "meman": 5444,
      "##iel": 5445,
      "mengakibatkan": 5446,
      "pd": 5447,
      "##30": 5448,
      "merebut": 5449,
      "diumumkan": 5450,
      "dur": 5451,
      "menduduki": 5452,
      "sepen": 5453,
      "##ontr": 5454,
      "##elompok": 5455,
      "rud": 5456,
      "diubah": 5457,
      "komite": 5458,
      "lintas": 5459,
      "##epend": 5460,
      "1985": 5461,
      "##mat": 5462,
      "##emar": 5463,
      "song": 5464,
      "campuran": 5465,
      "ten": 5466,
      "game": 5467,
      "langkah": 5468,
      "maju": 5469,
      "berkebangsaan": 5470,
      "persen": 5471,
      "rasi": 5472,
      "kuda": 5473,
      "##imb": 5474,
      "transportasi": 5475,
      "seminggu": 5476,
      "##iana": 5477,
      "34": 5478,
      "ran": 5479,
      "michael": 5480,
      "mau": 5481,
      "relatif": 5482,
      "long": 5483,
      "mengajar": 5484,
      "melarikan": 5485,
      "penyelengg": 5486,
      "menaw": 5487,
      "##atih": 5488,
      "membutuhkan": 5489,
      "sunda": 5490,
      "tern": 5491,
      "##rest": 5492,
      "sand": 5493,
      "perjuangan": 5494,
      "melaksanakan": 5495,
      "pemilu": 5496,
      "bam": 5497,
      "staf": 5498,
      "##yli": 5499,
      "mempelajari": 5500,
      "##rich": 5501,
      "independ": 5502,
      "prom": 5503,
      "##yarat": 5504,
      "troya": 5505,
      "sara": 5506,
      "dijual": 5507,
      "##jem": 5508,
      "pulang": 5509,
      "serupa": 5510,
      "##juang": 5511,
      "##ekar": 5512,
      "bertanggung": 5513,
      "candi": 5514,
      "hadir": 5515,
      "ringan": 5516,
      "##ower": 5517,
      "mengus": 5518,
      "##ophyllum": 5519,
      "teb": 5520,
      "##adari": 5521,
      "hidupnya": 5522,
      "disel": 5523,
      "##az": 5524,
      "seiring": 5525,
      "membeli": 5526,
      "cok": 5527,
      "ketidak": 5528,
      "##ust": 5529,
      "psych": 5530,
      "etnis": 5531,
      "sya": 5532,
      "kelima": 5533,
      "keker": 5534,
      "berukuran": 5535,
      "by": 5536,
      "##entasi": 5537,
      "berkaitan": 5538,
      "menerbitkan": 5539,
      "langit": 5540,
      "##ormatan": 5541,
      "kualitas": 5542,
      "##gn": 5543,
      "##ampaikan": 5544,
      "##kripsi": 5545,
      "sini": 5546,
      "vokal": 5547,
      "##hta": 5548,
      "mengatur": 5549,
      "##bs": 5550,
      "##ford": 5551,
      "##ire": 5552,
      "bulb": 5553,
      "berbicara": 5554,
      "menawarkan": 5555,
      "pengalaman": 5556,
      "##ington": 5557,
      "tun": 5558,
      "##itor": 5559,
      "menjalankan": 5560,
      "aturan": 5561,
      "kongres": 5562,
      "memer": 5563,
      "berlaku": 5564,
      "ganda": 5565,
      "black": 5566,
      "arsitektur": 5567,
      "185": 5568,
      "henry": 5569,
      "los": 5570,
      "1987": 5571,
      "##wood": 5572,
      "1984": 5573,
      "komando": 5574,
      "gitar": 5575,
      "buruk": 5576,
      "apollo": 5577,
      "menghancurkan": 5578,
      "##net": 5579,
      "hat": 5580,
      "pic": 5581,
      "vis": 5582,
      "##uss": 5583,
      "bangsawan": 5584,
      "pernyataan": 5585,
      "gur": 5586,
      "##iapkan": 5587,
      "bog": 5588,
      "##las": 5589,
      "ban": 5590,
      "didukung": 5591,
      "##aksanaan": 5592,
      "jag": 5593,
      "##utif": 5594,
      "##own": 5595,
      "##ake": 5596,
      "##inet": 5597,
      "nur": 5598,
      "pekan": 5599,
      "perairan": 5600,
      "jarang": 5601,
      "pola": 5602,
      "run": 5603,
      "kaya": 5604,
      "semuanya": 5605,
      "adik": 5606,
      "kesen": 5607,
      "iran": 5608,
      "##migr": 5609,
      "##alib": 5610,
      "om": 5611,
      "latar": 5612,
      "##bai": 5613,
      "##saan": 5614,
      "##ingkan": 5615,
      "lunak": 5616,
      "bulbophyllum": 5617,
      "##erj": 5618,
      "lapisan": 5619,
      "carex": 5620,
      "pendapat": 5621,
      "##itz": 5622,
      "##uliah": 5623,
      "remaja": 5624,
      "dinamakan": 5625,
      "frank": 5626,
      "38": 5627,
      "##ere": 5628,
      "##eet": 5629,
      "not": 5630,
      "kew": 5631,
      "kilometer": 5632,
      "##val": 5633,
      "##ado": 5634,
      "gagasan": 5635,
      "tersebar": 5636,
      "##ustak": 5637,
      "##leb": 5638,
      "buruh": 5639,
      "##ifikasi": 5640,
      "##abiskan": 5641,
      "only": 5642,
      "profes": 5643,
      "##ustakaan": 5644,
      "pasif": 5645,
      "ulama": 5646,
      "##ls": 5647,
      "##tren": 5648,
      "##ese": 5649,
      "angin": 5650,
      "##ott": 5651,
      "##ijaya": 5652,
      "##ebon": 5653,
      "##are": 5654,
      "pelajaran": 5655,
      "##entingan": 5656,
      "##ugerah": 5657,
      "##yakini": 5658,
      "indah": 5659,
      "pingg": 5660,
      "iz": 5661,
      "ikatan": 5662,
      "induk": 5663,
      "##ical": 5664,
      "bill": 5665,
      "##ashi": 5666,
      "antena": 5667,
      "dinyatakan": 5668,
      "kucing": 5669,
      "pengaj": 5670,
      "administratif": 5671,
      "##che": 5672,
      "tokyo": 5673,
      "digambarkan": 5674,
      "1982": 5675,
      "##etron": 5676,
      "putranya": 5677,
      "kesep": 5678,
      "##yang": 5679,
      "eric": 5680,
      "tepi": 5681,
      "jack": 5682,
      "##bc": 5683,
      "##adiri": 5684,
      "mengangkat": 5685,
      "champi": 5686,
      "##eni": 5687,
      "duduk": 5688,
      "kepemimpinan": 5689,
      "pagi": 5690,
      "anc": 5691,
      "pedagang": 5692,
      "##hiri": 5693,
      "##pas": 5694,
      "##utup": 5695,
      "gemp": 5696,
      "arti": 5697,
      "##eku": 5698,
      "##ikal": 5699,
      "bombyli": 5700,
      "window": 5701,
      "bac": 5702,
      "menimbulkan": 5703,
      "melindungi": 5704,
      "##egan": 5705,
      "ditangkap": 5706,
      "kampus": 5707,
      "sensus": 5708,
      "malang": 5709,
      "##ye": 5710,
      "situasi": 5711,
      "penye": 5712,
      "sinetron": 5713,
      "rok": 5714,
      "munisip": 5715,
      "37": 5716,
      "##ebunan": 5717,
      "mengakui": 5718,
      "perpustakaan": 5719,
      "aut": 5720,
      "##ito": 5721,
      "mencegah": 5722,
      "##aton": 5723,
      "##akh": 5724,
      "putaran": 5725,
      "subs": 5726,
      "##alap": 5727,
      "##ukur": 5728,
      "##sman": 5729,
      "perkebunan": 5730,
      "lantai": 5731,
      "##antinya": 5732,
      "louis": 5733,
      "menjalani": 5734,
      "lum": 5735,
      "##ster": 5736,
      "##atar": 5737,
      "dikeluarkan": 5738,
      "##kh": 5739,
      "south": 5740,
      "vii": 5741,
      "rekan": 5742,
      "karbon": 5743,
      "fiksi": 5744,
      "##ungkapkan": 5745,
      "molekul": 5746,
      "peralatan": 5747,
      "menghubungkan": 5748,
      "##ser": 5749,
      "inti": 5750,
      "##antas": 5751,
      "mundur": 5752,
      "fen": 5753,
      "##epon": 5754,
      "tulang": 5755,
      "lembap": 5756,
      "##indungan": 5757,
      "ditunjuk": 5758,
      "las": 5759,
      "##encanakan": 5760,
      "setahun": 5761,
      "fac": 5762,
      "sudut": 5763,
      "raden": 5764,
      "##ifa": 5765,
      "diperkenalkan": 5766,
      "kepentingan": 5767,
      "taiwan": 5768,
      "##ux": 5769,
      "tid": 5770,
      "tert": 5771,
      "##ilaku": 5772,
      "##wakan": 5773,
      "1983": 5774,
      "aspek": 5775,
      "##olos": 5776,
      "pembun": 5777,
      "##arak": 5778,
      "##yon": 5779,
      "##yal": 5780,
      "mengunjungi": 5781,
      "keuntungan": 5782,
      "##ahatan": 5783,
      "rot": 5784,
      "swiss": 5785,
      "cirebon": 5786,
      "##etoph": 5787,
      "terminal": 5788,
      "##we": 5789,
      "seluas": 5790,
      "mini": 5791,
      "lambang": 5792,
      "menemb": 5793,
      "mycetoph": 5794,
      "##atorium": 5795,
      "##40": 5796,
      "kir": 5797,
      "##ulunya": 5798,
      "dinding": 5799,
      "##ft": 5800,
      "##ech": 5801,
      "##tt": 5802,
      "##juk": 5803,
      "2020": 5804,
      "##adu": 5805,
      "dam": 5806,
      "dor": 5807,
      "##rav": 5808,
      "##amah": 5809,
      "##ider": 5810,
      "jin": 5811,
      "beliau": 5812,
      "##til": 5813,
      "##etan": 5814,
      "berpart": 5815,
      "daratan": 5816,
      "##tujui": 5817,
      "makh": 5818,
      "angkasa": 5819,
      "junior": 5820,
      "tank": 5821,
      "flor": 5822,
      "pembunuhan": 5823,
      "##akatan": 5824,
      "love": 5825,
      "sejarawan": 5826,
      "menjual": 5827,
      "telur": 5828,
      "##egara": 5829,
      "aksara": 5830,
      "singkat": 5831,
      "##romosi": 5832,
      "##elakaan": 5833,
      "pendapatan": 5834,
      "prasasti": 5835,
      "##ais": 5836,
      "##lir": 5837,
      "1978": 5838,
      "pis": 5839,
      "kecelakaan": 5840,
      "windows": 5841,
      "berpendapat": 5842,
      "##akaran": 5843,
      "thomas": 5844,
      "beragam": 5845,
      "pir": 5846,
      "disiarkan": 5847,
      "bung": 5848,
      "pid": 5849,
      "ekor": 5850,
      "kuliah": 5851,
      "anjing": 5852,
      "permintaan": 5853,
      "perlindungan": 5854,
      "psik": 5855,
      "blok": 5856,
      "berpartisipasi": 5857,
      "sekitarnya": 5858,
      "pref": 5859,
      "nap": 5860,
      "diakui": 5861,
      "1979": 5862,
      "urusan": 5863,
      "##vin": 5864,
      "was": 5865,
      "hadiah": 5866,
      "##line": 5867,
      "##eus": 5868,
      "fri": 5869,
      "##elur": 5870,
      "##weg": 5871,
      "tahunan": 5872,
      "asl": 5873,
      "colle": 5874,
      "dibawah": 5875,
      "taw": 5876,
      "##idi": 5877,
      "penemuan": 5878,
      "ekstr": 5879,
      "nen": 5880,
      "diciptakan": 5881,
      "##ht": 5882,
      "##asama": 5883,
      "terbit": 5884,
      "konferensi": 5885,
      "penerbit": 5886,
      "bapak": 5887,
      "pengaw": 5888,
      "rub": 5889,
      "##ontak": 5890,
      "kamb": 5891,
      "west": 5892,
      "##wis": 5893,
      "dimainkan": 5894,
      "pajak": 5895,
      "mong": 5896,
      "meks": 5897,
      "signif": 5898,
      "cender": 5899,
      "pasti": 5900,
      "wafat": 5901,
      "##itt": 5902,
      "##otria": 5903,
      "##arapkan": 5904,
      "pelatih": 5905,
      "meksiko": 5906,
      "##ulusan": 5907,
      "##lude": 5908,
      "lembah": 5909,
      "1981": 5910,
      "munisipalitas": 5911,
      "pesantren": 5912,
      "dilah": 5913,
      "kudus": 5914,
      "##kand": 5915,
      "psychotria": 5916,
      "penyel": 5917,
      "tamu": 5918,
      "mengem": 5919,
      "didasarkan": 5920,
      "ahmad": 5921,
      "wat": 5922,
      "reformasi": 5923,
      "memerintahkan": 5924,
      "koleksi": 5925,
      "75": 5926,
      "lihat": 5927,
      "ath": 5928,
      "matemat": 5929,
      "dimasukkan": 5930,
      "tal": 5931,
      "institut": 5932,
      "##nes": 5933,
      "##tod": 5934,
      "fos": 5935,
      "unik": 5936,
      "publ": 5937,
      "coc": 5938,
      "##ings": 5939,
      "##romosikan": 5940,
      "400": 5941,
      "harapan": 5942,
      "##lad": 5943,
      "##kah": 5944,
      "anth": 5945,
      "##lor": 5946,
      "kristus": 5947,
      "biara": 5948,
      "dimaksud": 5949,
      "##oi": 5950,
      "##indak": 5951,
      "##lima": 5952,
      "animasi": 5953,
      "aslinya": 5954,
      "sepenuhnya": 5955,
      "##lav": 5956,
      "##aina": 5957,
      "##agus": 5958,
      "dos": 5959,
      "##elan": 5960,
      "pond": 5961,
      "nektar": 5962,
      "##ihkan": 5963,
      "amb": 5964,
      "ren": 5965,
      "ditempatkan": 5966,
      "moh": 5967,
      "menghabiskan": 5968,
      "sambil": 5969,
      "##safat": 5970,
      "dilahirkan": 5971,
      "##pen": 5972,
      "boleh": 5973,
      "signifikan": 5974,
      "##untut": 5975,
      "cek": 5976,
      "record": 5977,
      "count": 5978,
      "diser": 5979,
      "pelatihan": 5980,
      "show": 5981,
      "##anjutan": 5982,
      "48": 5983,
      "menghind": 5984,
      "beserta": 5985,
      "menyelamatkan": 5986,
      "semi": 5987,
      "hukuman": 5988,
      "fat": 5989,
      "khan": 5990,
      "##eam": 5991,
      "##angkut": 5992,
      "mass": 5993,
      "mahkota": 5994,
      "##ze": 5995,
      "filsafat": 5996,
      "richard": 5997,
      "pering": 5998,
      "medali": 5999,
      "kertas": 6000,
      "simp": 6001,
      "##mati": 6002,
      "##indung": 6003,
      "wah": 6004,
      "##ataan": 6005,
      "meriam": 6006,
      "tergantung": 6007,
      "dikarenakan": 6008,
      "menceritakan": 6009,
      "champions": 6010,
      "gempa": 6011,
      "42": 6012,
      "bata": 6013,
      "nasi": 6014,
      "55": 6015,
      "perak": 6016,
      "##egaraan": 6017,
      "altern": 6018,
      "kapasitas": 6019,
      "histor": 6020,
      "##otong": 6021,
      "soci": 6022,
      "##board": 6023,
      "tong": 6024,
      "##uhur": 6025,
      "bulu": 6026,
      "ky": 6027,
      "##ektif": 6028,
      "kesenian": 6029,
      "dalamnya": 6030,
      "perayaan": 6031,
      "virus": 6032,
      "yu": 6033,
      "##tant": 6034,
      "##osok": 6035,
      "mengumpulkan": 6036,
      "zona": 6037,
      "##aminya": 6038,
      "gil": 6039,
      "pasir": 6040,
      "hil": 6041,
      "alf": 6042,
      "nuklir": 6043,
      "1965": 6044,
      "melah": 6045,
      "180": 6046,
      "##lawan": 6047,
      "polen": 6048,
      "dinamai": 6049,
      "buprest": 6050,
      "##eder": 6051,
      "##elih": 6052,
      "##unci": 6053,
      "makhluk": 6054,
      "yus": 6055,
      "zat": 6056,
      "takhta": 6057,
      "##ect": 6058,
      "tour": 6059,
      "ray": 6060,
      "martin": 6061,
      "harian": 6062,
      "peringatan": 6063,
      "cel": 6064,
      "sebal": 6065,
      "##indahan": 6066,
      "melainkan": 6067,
      "itulah": 6068,
      "dl": 6069,
      "##olf": 6070,
      "##jemahkan": 6071,
      "ungg": 6072,
      "center": 6073,
      "lir": 6074,
      "##odi": 6075,
      "independen": 6076,
      "##include": 6077,
      "max": 6078,
      "kerj": 6079,
      "mencatat": 6080,
      "dprd": 6081,
      "##angani": 6082,
      "##asilan": 6083,
      "##rak": 6084,
      "39": 6085,
      "eksekutif": 6086,
      "##awatan": 6087,
      "pengikut": 6088,
      "instr": 6089,
      "scara": 6090,
      "##enam": 6091,
      "mengklaim": 6092,
      "##aftar": 6093,
      "1975": 6094,
      "##omotif": 6095,
      "dipercaya": 6096,
      "balapan": 6097,
      "mars": 6098,
      "bayi": 6099,
      "bombyliidae": 6100,
      "yohan": 6101,
      "menentang": 6102,
      "##tab": 6103,
      "keag": 6104,
      "panglima": 6105,
      "##inginan": 6106,
      "otor": 6107,
      "kapten": 6108,
      "analisis": 6109,
      "tahta": 6110,
      "hu": 6111,
      "utsman": 6112,
      "##ogen": 6113,
      "perdamaian": 6114,
      "diperoleh": 6115,
      "skot": 6116,
      "pahlawan": 6117,
      "best": 6118,
      "bil": 6119,
      "labor": 6120,
      "mempers": 6121,
      "efektif": 6122,
      "mengaku": 6123,
      "rangkaian": 6124,
      "dialek": 6125,
      "##ario": 6126,
      "hakim": 6127,
      "menikahi": 6128,
      "trop": 6129,
      "poin": 6130,
      "kematiannya": 6131,
      "sebaliknya": 6132,
      "tampaknya": 6133,
      "ilmuwan": 6134,
      "bertelur": 6135,
      "##aram": 6136,
      "menak": 6137,
      "##imbangan": 6138,
      "mengej": 6139,
      "contohnya": 6140,
      "kara": 6141,
      "##11": 6142,
      "##usul": 6143,
      "label": 6144,
      "berkuasa": 6145,
      "onlyinclude": 6146,
      "##pun": 6147,
      "##bumi": 6148,
      "##balikan": 6149,
      "sut": 6150,
      "scaraba": 6151,
      "pendirian": 6152,
      "kejahatan": 6153,
      "semacam": 6154,
      "lampung": 6155,
      "melahirkan": 6156,
      "##obatan": 6157,
      "pew": 6158,
      "pembuk": 6159,
      "yohanes": 6160,
      "##embun": 6161,
      "golongan": 6162,
      "gangg": 6163,
      "komune": 6164,
      "menetapkan": 6165,
      "penjara": 6166,
      "suaminya": 6167,
      "tangg": 6168,
      "##robi": 6169,
      "protein": 6170,
      "##dy": 6171,
      "memuat": 6172,
      "##buru": 6173,
      "beral": 6174,
      "seniman": 6175,
      "##entrasi": 6176,
      "bersenj": 6177,
      "kartu": 6178,
      "nan": 6179,
      "sejenis": 6180,
      "rt": 6181,
      "##esta": 6182,
      "##ahami": 6183,
      "##ebaskan": 6184,
      "menandatangani": 6185,
      "siapa": 6186,
      "ditutup": 6187,
      "strateg": 6188,
      "eli": 6189,
      "sikap": 6190,
      "isi": 6191,
      "##ns": 6192,
      "perilaku": 6193,
      "cam": 6194,
      "pon": 6195,
      "sapi": 6196,
      "cenderung": 6197,
      "##organ": 6198,
      "terjemahan": 6199,
      "ruangan": 6200,
      "##ky": 6201,
      "skotlandia": 6202,
      "xi": 6203,
      "telepon": 6204,
      "kump": 6205,
      "terjadinya": 6206,
      "asosiasi": 6207,
      "##omun": 6208,
      "berpengaruh": 6209,
      "pensi": 6210,
      "volume": 6211,
      "fifa": 6212,
      "rasul": 6213,
      "pegaw": 6214,
      "##els": 6215,
      "##enaran": 6216,
      "det": 6217,
      "luka": 6218,
      "1976": 6219,
      "lomba": 6220,
      "american": 6221,
      "##alifikasi": 6222,
      "bom": 6223,
      "##over": 6224,
      "bum": 6225,
      "out": 6226,
      "dibunuh": 6227,
      "1974": 6228,
      "##old": 6229,
      "tir": 6230,
      "##arai": 6231,
      "menyadari": 6232,
      "portug": 6233,
      "##adapan": 6234,
      "anton": 6235,
      "part": 6236,
      "diduga": 6237,
      "mendek": 6238,
      "##endalikan": 6239,
      "##ancam": 6240,
      "pesta": 6241,
      "kamar": 6242,
      "##pon": 6243,
      "##onj": 6244,
      "menekan": 6245,
      "##isinya": 6246,
      "persatuan": 6247,
      "1973": 6248,
      "##orit": 6249,
      "##adai": 6250,
      "polit": 6251,
      "fe": 6252,
      "kelapa": 6253,
      "rumput": 6254,
      "membaca": 6255,
      "gul": 6256,
      "setidak": 6257,
      "iklim": 6258,
      "saudaranya": 6259,
      "lis": 6260,
      "kritikus": 6261,
      "kabinet": 6262,
      "mont": 6263,
      "selamat": 6264,
      "terjun": 6265,
      "##my": 6266,
      "buprestidae": 6267,
      "##ile": 6268,
      "diplom": 6269,
      "##esia": 6270,
      "##erikatan": 6271,
      "47": 6272,
      "183": 6273,
      "victor": 6274,
      "aud": 6275,
      "perserikatan": 6276,
      "1967": 6277,
      "ular": 6278,
      "alum": 6279,
      "1942": 6280,
      "ayam": 6281,
      "taj": 6282,
      "pasifik": 6283,
      "kre": 6284,
      "mam": 6285,
      "mengacu": 6286,
      "lulusan": 6287,
      "jantung": 6288,
      "##ial": 6289,
      "##ehi": 6290,
      "lepas": 6291,
      "##kes": 6292,
      "##galan": 6293,
      "belgia": 6294,
      "mig": 6295,
      "denmark": 6296,
      "pp": 6297,
      "has": 6298,
      "penya": 6299,
      "ditambah": 6300,
      "##puh": 6301,
      "elektronik": 6302,
      "rilis": 6303,
      "rahasia": 6304,
      "elemen": 6305,
      "ukr": 6306,
      "##imewa": 6307,
      "dipindahkan": 6308,
      "ditampilkan": 6309,
      "bob": 6310,
      "##oner": 6311,
      "rekor": 6312,
      "teph": 6313,
      "sant": 6314,
      "menetap": 6315,
      "muk": 6316,
      "##ancangan": 6317,
      "jl": 6318,
      "pelaksanaan": 6319,
      "lamela": 6320,
      "marga": 6321,
      "pelajar": 6322,
      "1940": 6323,
      "federal": 6324,
      "berkat": 6325,
      "##auh": 6326,
      "sahabat": 6327,
      "portugis": 6328,
      "lawan": 6329,
      "sap": 6330,
      "menangkap": 6331,
      "##inda": 6332,
      "1930": 6333,
      "##jen": 6334,
      "one": 6335,
      "##cc": 6336,
      "##wn": 6337,
      "##esmikan": 6338,
      "##alian": 6339,
      "##enangkan": 6340,
      "##urangan": 6341,
      "##onan": 6342,
      "fot": 6343,
      "bany": 6344,
      "scarabaeidae": 6345,
      "prot": 6346,
      "##tah": 6347,
      "1977": 6348,
      "pembagian": 6349,
      "drum": 6350,
      "##mos": 6351,
      "##usak": 6352,
      "##ecio": 6353,
      "##esan": 6354,
      "pakistan": 6355,
      "setidaknya": 6356,
      "mengaw": 6357,
      "bersenjata": 6358,
      "gangguan": 6359,
      "padi": 6360,
      "tephrit": 6361,
      "##so": 6362,
      "amor": 6363,
      "##aft": 6364,
      "gigi": 6365,
      "bertujuan": 6366,
      "manch": 6367,
      "cyper": 6368,
      "kebun": 6369,
      "yud": 6370,
      "mir": 6371,
      "yerus": 6372,
      "punya": 6373,
      "pemas": 6374,
      "##toran": 6375,
      "184": 6376,
      "##etakan": 6377,
      "1969": 6378,
      "meneg": 6379,
      "1968": 6380,
      "##izinkan": 6381,
      "alternatif": 6382,
      "pembalap": 6383,
      "markas": 6384,
      "bertindak": 6385,
      "reli": 6386,
      "##gabungkan": 6387,
      "skala": 6388,
      "memperkenalkan": 6389,
      "##urang": 6390,
      "pegawai": 6391,
      "nusantara": 6392,
      "##eph": 6393,
      "high": 6394,
      "bogor": 6395,
      "##inus": 6396,
      "mengan": 6397,
      "dekade": 6398,
      "sys": 6399,
      "##onik": 6400,
      "konvensi": 6401,
      "eug": 6402,
      "##ujian": 6403,
      "ditentukan": 6404,
      "##isl": 6405,
      "pemuk": 6406,
      "diganti": 6407,
      "##ush": 6408,
      "##ormati": 6409,
      "##arki": 6410,
      "nenek": 6411,
      "kesuk": 6412,
      "pengusaha": 6413,
      "format": 6414,
      "##oo": 6415,
      "##elilingi": 6416,
      "##gaja": 6417,
      "##tusan": 6418,
      "##ture": 6419,
      "yerusalem": 6420,
      "arus": 6421,
      "iklan": 6422,
      "mengungkapkan": 6423,
      "tes": 6424,
      "palest": 6425,
      "warisan": 6426,
      "inc": 6427,
      "nit": 6428,
      "binatang": 6429,
      "pemand": 6430,
      "wajah": 6431,
      "graf": 6432,
      "chi": 6433,
      "keg": 6434,
      "irak": 6435,
      "mendengar": 6436,
      "kering": 6437,
      "habit": 6438,
      "##efa": 6439,
      "panc": 6440,
      "1972": 6441,
      "##nas": 6442,
      "##ukis": 6443,
      "gua": 6444,
      "##12": 6445,
      "menghindari": 6446,
      "real": 6447,
      "siaran": 6448,
      "christ": 6449,
      "umur": 6450,
      "berlokasi": 6451,
      "##anggu": 6452,
      "44": 6453,
      "keagamaan": 6454,
      "cd": 6455,
      "##teran": 6456,
      "kekerasan": 6457,
      "dll": 6458,
      "profesor": 6459,
      "identitas": 6460,
      "syarat": 6461,
      "haw": 6462,
      "sayang": 6463,
      "1971": 6464,
      "krim": 6465,
      "##sor": 6466,
      "1963": 6467,
      "##ebat": 6468,
      "kolonial": 6469,
      "dampak": 6470,
      "senecio": 6471,
      "##eman": 6472,
      "gabungan": 6473,
      "ukraina": 6474,
      "##ingin": 6475,
      "tangk": 6476,
      "1966": 6477,
      "lif": 6478,
      "dong": 6479,
      "fokus": 6480,
      "rap": 6481,
      "benua": 6482,
      "pbb": 6483,
      "melep": 6484,
      "##utip": 6485,
      "gelap": 6486,
      "dendrobi": 6487,
      "penyebab": 6488,
      "##tul": 6489,
      "150": 6490,
      "wangsa": 6491,
      "dendrobium": 6492,
      "##ilasi": 6493,
      "##isk": 6494,
      "##ahas": 6495,
      "pondok": 6496,
      "nusa": 6497,
      "ortod": 6498,
      "tephritidae": 6499,
      "bp": 6500,
      "##iny": 6501,
      "syari": 6502,
      "gej": 6503,
      "jas": 6504,
      "kedok": 6505,
      "43": 6506,
      "pemak": 6507,
      "melint": 6508,
      "menempatkan": 6509,
      "nob": 6510,
      "##bud": 6511,
      "lubang": 6512,
      "pengganti": 6513,
      "##ekuensi": 6514,
      "gand": 6515,
      "berganti": 6516,
      "prestasi": 6517,
      "wid": 6518,
      "terkadang": 6519,
      "sn": 6520,
      "##igur": 6521,
      "purw": 6522,
      "kid": 6523,
      "penger": 6524,
      "##idik": 6525,
      "tarian": 6526,
      "bilangan": 6527,
      "bakteri": 6528,
      "##ope": 6529,
      "palestina": 6530,
      "jen": 6531,
      "adam": 6532,
      "##entina": 6533,
      "musisi": 6534,
      "##ert": 6535,
      "menyebar": 6536,
      "1962": 6537,
      "##rt": 6538,
      "fu": 6539,
      "##ophagus": 6540,
      "##wisata": 6541,
      "##imbang": 6542,
      "semenanjung": 6543,
      "seksual": 6544,
      "##ancarkan": 6545,
      "apapun": 6546,
      "samb": 6547,
      "master": 6548,
      "jari": 6549,
      "melam": 6550,
      "##ekor": 6551,
      "1948": 6552,
      "menambahkan": 6553,
      "##assar": 6554,
      "kebebasan": 6555,
      "belah": 6556,
      "adegan": 6557,
      "aspara": 6558,
      "regional": 6559,
      "isu": 6560,
      "gerbang": 6561,
      "mengakhiri": 6562,
      "##anth": 6563,
      "46": 6564,
      "1949": 6565,
      "hay": 6566,
      "pemikiran": 6567,
      "##emi": 6568,
      "dilaporkan": 6569,
      "philip": 6570,
      "##idaceae": 6571,
      "lolos": 6572,
      "liber": 6573,
      "stabil": 6574,
      "rol": 6575,
      "wa": 6576,
      "##zah": 6577,
      "izin": 6578,
      "##thophagus": 6579,
      "nyata": 6580,
      "##tuju": 6581,
      "##its": 6582,
      "##ild": 6583,
      "jac": 6584,
      "##win": 6585,
      "##vasi": 6586,
      "minuman": 6587,
      "##usat": 6588,
      "##ungkan": 6589,
      "norweg": 6590,
      "banten": 6591,
      "52": 6592,
      "melaporkan": 6593,
      "ash": 6594,
      "1964": 6595,
      "cak": 6596,
      "##ajat": 6597,
      "##wang": 6598,
      "49": 6599,
      "pip": 6600,
      "##masi": 6601,
      "pengel": 6602,
      "basis": 6603,
      "##cel": 6604,
      "merd": 6605,
      "agak": 6606,
      "didapat": 6607,
      "##dam": 6608,
      "app": 6609,
      "kakak": 6610,
      "mongol": 6611,
      "meluncurkan": 6612,
      "onthophagus": 6613,
      "memanfaatkan": 6614,
      "##trov": 6615,
      "matematika": 6616,
      "pembuat": 6617,
      "cac": 6618,
      "##ops": 6619,
      "##otaan": 6620,
      "##buktikan": 6621,
      "hiburan": 6622,
      "##sesan": 6623,
      "##gerakan": 6624,
      "kasih": 6625,
      "main": 6626,
      "##vari": 6627,
      "##gales": 6628,
      "oton": 6629,
      "roda": 6630,
      "dinas": 6631,
      "##enggarakan": 6632,
      "pembukaan": 6633,
      "dikalahkan": 6634,
      "gent": 6635,
      "pasi": 6636,
      "fisika": 6637,
      "asparagales": 6638,
      "dipengaruhi": 6639,
      "harry": 6640,
      "##ajian": 6641,
      "##aph": 6642,
      "sinar": 6643,
      "##num": 6644,
      "##bih": 6645,
      "nazi": 6646,
      "sebaga": 6647,
      "menyeb": 6648,
      "menderita": 6649,
      "strategi": 6650,
      "tayang": 6651,
      "##omy": 6652,
      "182": 6653,
      "peta": 6654,
      "ear": 6655,
      "sr": 6656,
      "cha": 6657,
      "edward": 6658,
      "mary": 6659,
      "##umpul": 6660,
      "sawah": 6661,
      "##angkaian": 6662,
      "angeles": 6663,
      "ya": 6664,
      "1946": 6665,
      "tipul": 6666,
      "hum": 6667,
      "kontrov": 6668,
      "##sel": 6669,
      "paulus": 6670,
      "orch": 6671,
      "fre": 6672,
      "legenda": 6673,
      "menyerahkan": 6674,
      "persegi": 6675,
      "section": 6676,
      "hulu": 6677,
      "cons": 6678,
      "uefa": 6679,
      "makna": 6680,
      "system": 6681,
      "##ym": 6682,
      "politikus": 6683,
      "josep": 6684,
      "bencana": 6685,
      "wash": 6686,
      "neptun": 6687,
      "##bak": 6688,
      "##kt": 6689,
      "serangkaian": 6690,
      "bengk": 6691,
      "sit": 6692,
      "maluku": 6693,
      "terbanyak": 6694,
      "sind": 6695,
      "with": 6696,
      "##oci": 6697,
      "berlin": 6698,
      "company": 6699,
      "som": 6700,
      "bot": 6701,
      "kekalahan": 6702,
      "raks": 6703,
      "riau": 6704,
      "roti": 6705,
      "salib": 6706,
      "sor": 6707,
      "nel": 6708,
      "strategis": 6709,
      "pangkalan": 6710,
      "masehi": 6711,
      "mengarah": 6712,
      "##ganegaraan": 6713,
      "norwegia": 6714,
      "berlanjut": 6715,
      "college": 6716,
      "##nik": 6717,
      "##obi": 6718,
      "kualifikasi": 6719,
      "franc": 6720,
      "##ics": 6721,
      "rambut": 6722,
      "jum": 6723,
      "menyelenggarakan": 6724,
      "timor": 6725,
      "pendekatan": 6726,
      "pembawa": 6727,
      "wir": 6728,
      "diharapkan": 6729,
      "##sin": 6730,
      "##fir": 6731,
      "ortodoks": 6732,
      "temannya": 6733,
      "aset": 6734,
      "pengakuan": 6735,
      "begonia": 6736,
      "mengalir": 6737,
      "ori": 6738,
      "promosi": 6739,
      "##15": 6740,
      "##omunikasi": 6741,
      "dimak": 6742,
      "tipulidae": 6743,
      "##elajah": 6744,
      "tidur": 6745,
      "perum": 6746,
      "ritual": 6747,
      "kedokteran": 6748,
      "centr": 6749,
      "62": 6750,
      "gula": 6751,
      "##tarik": 6752,
      "##lig": 6753,
      "lib": 6754,
      "garam": 6755,
      "65": 6756,
      "pangg": 6757,
      "kontrol": 6758,
      "rw": 6759,
      "makassar": 6760,
      "##identifikasi": 6761,
      "##mur": 6762,
      "otoritas": 6763,
      "lak": 6764,
      "bukanlah": 6765,
      "amat": 6766,
      "##emia": 6767,
      "les": 6768,
      "wilayahnya": 6769,
      "mengundurkan": 6770,
      "##tansi": 6771,
      "protestan": 6772,
      "##ico": 6773,
      "plas": 6774,
      "balai": 6775,
      "now": 6776,
      "kumpulan": 6777,
      "1961": 6778,
      "baja": 6779,
      "##alo": 6780,
      "adapun": 6781,
      "setia": 6782,
      "##ancur": 6783,
      "demokrasi": 6784,
      "cop": 6785,
      "ion": 6786,
      "lip": 6787,
      "agen": 6788,
      "bagus": 6789,
      "##vel": 6790,
      "##efinisi": 6791,
      "metro": 6792,
      "##entuan": 6793,
      "semangat": 6794,
      "neptunus": 6795,
      "adap": 6796,
      "suriah": 6797,
      "pasca": 6798,
      "pengunjung": 6799,
      "berpindah": 6800,
      "##iarkan": 6801,
      "otom": 6802,
      "##arto": 6803,
      "##oul": 6804,
      "dius": 6805,
      "pensiun": 6806,
      "pencipta": 6807,
      "konstruksi": 6808,
      "akun": 6809,
      "##sp": 6810,
      "kepadanya": 6811,
      "iman": 6812,
      "##aktif": 6813,
      "kutu": 6814,
      "##yphi": 6815,
      "penyelenggaraan": 6816,
      "gugur": 6817,
      "laboratorium": 6818,
      "dipers": 6819,
      "drs": 6820,
      "duta": 6821,
      "##ago": 6822,
      "##erahan": 6823,
      "akibatnya": 6824,
      "53": 6825,
      "perek": 6826,
      "kedatangan": 6827,
      "56": 6828,
      "kunci": 6829,
      "gus": 6830,
      "menya": 6831,
      "nu": 6832,
      "pek": 6833,
      "guna": 6834,
      "linyphi": 6835,
      "##fik": 6836,
      "linyphiidae": 6837,
      "##ografis": 6838,
      "sound": 6839,
      "patr": 6840,
      "mycetophilidae": 6841,
      "##ayangan": 6842,
      "##uto": 6843,
      "jend": 6844,
      "manga": 6845,
      "##vd": 6846,
      "##amad": 6847,
      "##icu": 6848,
      "joseph": 6849,
      "pariwisata": 6850,
      "bed": 6851,
      "tex": 6852,
      "bersaudara": 6853,
      "jean": 6854,
      "senapan": 6855,
      "##inggalan": 6856,
      "pergerakan": 6857,
      "mataram": 6858,
      "##iano": 6859,
      "cad": 6860,
      "##asakan": 6861,
      "kendali": 6862,
      "royal": 6863,
      "memberit": 6864,
      "merdeka": 6865,
      "##enjak": 6866,
      "##waktu": 6867,
      "mendes": 6868,
      "koord": 6869,
      "legisl": 6870,
      "sci": 6871,
      "kedudukan": 6872,
      "kain": 6873,
      "dagang": 6874,
      "brig": 6875,
      "gajah": 6876,
      "sehar": 6877,
      "ancaman": 6878,
      "negatif": 6879,
      "##lywood": 6880,
      "kg": 6881,
      "atap": 6882,
      "kus": 6883,
      "asisten": 6884,
      "target": 6885,
      "santa": 6886,
      "konstant": 6887,
      "mengirimkan": 6888,
      "sari": 6889,
      "##ise": 6890,
      "mengajukan": 6891,
      "arke": 6892,
      "mengingat": 6893,
      "##ations": 6894,
      "##utkan": 6895,
      "##ovasi": 6896,
      "##16": 6897,
      "57": 6898,
      "semenjak": 6899,
      "time": 6900,
      "##ebaran": 6901,
      "diresmikan": 6902,
      "pay": 6903,
      "meja": 6904,
      "jad": 6905,
      "green": 6906,
      "ec": 6907,
      "marah": 6908,
      "##ullah": 6909,
      "##baiki": 6910,
      "1947": 6911,
      "meta": 6912,
      "sengaja": 6913,
      "kesepakatan": 6914,
      "diaj": 6915,
      "menemp": 6916,
      "dibutuhkan": 6917,
      "penggemar": 6918,
      "sinyal": 6919,
      "cas": 6920,
      "komik": 6921,
      "region": 6922,
      "##etus": 6923,
      "setuju": 6924,
      "##sih": 6925,
      "64": 6926,
      "bergantung": 6927,
      "das": 6928,
      "north": 6929,
      "tud": 6930,
      "raksasa": 6931,
      "##ular": 6932,
      "seekor": 6933,
      "##edral": 6934,
      "masakan": 6935,
      "won": 6936,
      "menghentikan": 6937,
      "1920": 6938,
      "1958": 6939,
      "anime": 6940,
      "##ety": 6941,
      "##80": 6942,
      "pilot": 6943,
      "penjaga": 6944,
      "perannya": 6945,
      "gh": 6946,
      "##cha": 6947,
      "washington": 6948,
      "##presi": 6949,
      "meg": 6950,
      "disney": 6951,
      "dec": 6952,
      "diatur": 6953,
      "county": 6954,
      "tersisa": 6955,
      "brit": 6956,
      "ox": 6957,
      "menambah": 6958,
      "hall": 6959,
      "portu": 6960,
      "live": 6961,
      "disk": 6962,
      "haji": 6963,
      "##awal": 6964,
      "surya": 6965,
      "##oft": 6966,
      "##ning": 6967,
      "hir": 6968,
      "lelaki": 6969,
      "parah": 6970,
      "mid": 6971,
      "##aul": 6972,
      "liter": 6973,
      "kank": 6974,
      "sewaktu": 6975,
      "berdirinya": 6976,
      "##asihat": 6977,
      "##agon": 6978,
      "##alik": 6979,
      "1959": 6980,
      "otak": 6981,
      "##ague": 6982,
      "lirik": 6983,
      "##str": 6984,
      "kard": 6985,
      "istimewa": 6986,
      "tuk": 6987,
      "##ahit": 6988,
      "suami": 6989,
      "terpaksa": 6990,
      "portugal": 6991,
      "##ibus": 6992,
      "keenam": 6993,
      "##iannya": 6994,
      "menjelang": 6995,
      "diyakini": 6996,
      "##abeth": 6997,
      "saint": 6998,
      "oks": 6999,
      "##atukan": 7000,
      "kesalahan": 7001,
      "##edy": 7002,
      "##sinya": 7003,
      "infan": 7004,
      "permais": 7005,
      "66": 7006,
      "teh": 7007,
      "##ily": 7008,
      "dikem": 7009,
      "memasukkan": 7010,
      "terlebih": 7011,
      "terkem": 7012,
      "dh": 7013,
      "##jukan": 7014,
      "kesulitan": 7015,
      "##cus": 7016,
      "argentina": 7017,
      "mengisi": 7018,
      "pameran": 7019,
      "dias": 7020,
      "##esa": 7021,
      "##ambi": 7022,
      "eksped": 7023,
      "##urt": 7024,
      "pelunc": 7025,
      "##antikan": 7026,
      "##awancara": 7027,
      "kehormatan": 7028,
      "serbia": 7029,
      "papan": 7030,
      "##ekh": 7031,
      "prefektur": 7032,
      "peman": 7033,
      "biji": 7034,
      "terbuk": 7035,
      "ditandai": 7036,
      "##nia": 7037,
      "serv": 7038,
      "dipanggil": 7039,
      "bertambah": 7040,
      "dal": 7041,
      "##aksana": 7042,
      "rupa": 7043,
      "##ektor": 7044,
      "lemah": 7045,
      "samudra": 7046,
      "multi": 7047,
      "invasi": 7048,
      "rancangan": 7049,
      "##iaan": 7050,
      "membayar": 7051,
      "mikro": 7052,
      "cita": 7053,
      "##efinisikan": 7054,
      "kesatuan": 7055,
      "krisis": 7056,
      "pemakaman": 7057,
      "pasien": 7058,
      "disimpan": 7059,
      "kamera": 7060,
      "##inci": 7061,
      "##uck": 7062,
      "saltic": 7063,
      "ditujukan": 7064,
      "susu": 7065,
      "##imum": 7066,
      "salticidae": 7067,
      "terkena": 7068,
      "god": 7069,
      "normal": 7070,
      "halnya": 7071,
      "##sion": 7072,
      "kaca": 7073,
      "dioperasikan": 7074,
      "kepadatan": 7075,
      "##apus": 7076,
      "corpor": 7077,
      "terbaru": 7078,
      "que": 7079,
      "keinginan": 7080,
      "dilanjutkan": 7081,
      "59": 7082,
      "##esu": 7083,
      "soekar": 7084,
      "jose": 7085,
      "terkemuka": 7086,
      "latihan": 7087,
      "600": 7088,
      "##agan": 7089,
      "bij": 7090,
      "hand": 7091,
      "terbukti": 7092,
      "gejala": 7093,
      "##erto": 7094,
      "##anggan": 7095,
      "##iapan": 7096,
      "spek": 7097,
      "ibadah": 7098,
      "von": 7099,
      "##18": 7100,
      "medis": 7101,
      "ditug": 7102,
      "##tures": 7103,
      "anggaran": 7104,
      "memerlukan": 7105,
      "peneliti": 7106,
      "##ekutu": 7107,
      "disusun": 7108,
      "##ren": 7109,
      "membintangi": 7110,
      "##tag": 7111,
      "##14": 7112,
      "menuntut": 7113,
      "##ambut": 7114,
      "##agama": 7115,
      "memperkuat": 7116,
      "malah": 7117,
      "##19": 7118,
      "kanker": 7119,
      "daniel": 7120,
      "micros": 7121,
      "batal": 7122,
      "ret": 7123,
      "berangkat": 7124,
      "usul": 7125,
      "kont": 7126,
      "06": 7127,
      "will": 7128,
      "pemerintahannya": 7129,
      "##13": 7130,
      "##ulum": 7131,
      "berjarak": 7132,
      "##ompet": 7133,
      "perahu": 7134,
      "##ianus": 7135,
      "ditambahkan": 7136,
      "##awang": 7137,
      "cocok": 7138,
      "bios": 7139,
      "sebagainya": 7140,
      "##lukkan": 7141,
      "padat": 7142,
      "ekspedisi": 7143,
      "##ayat": 7144,
      "fenom": 7145,
      "tertarik": 7146,
      "##umpulan": 7147,
      "##antian": 7148,
      "manajer": 7149,
      "02": 7150,
      "##ianya": 7151,
      "##ustru": 7152,
      "supaya": 7153,
      "menyerah": 7154,
      "dimakamkan": 7155,
      "sekelompok": 7156,
      "brun": 7157,
      "##ormat": 7158,
      "seng": 7159,
      "stev": 7160,
      "online": 7161,
      "##ugu": 7162,
      "francis": 7163,
      "justru": 7164,
      "73": 7165,
      "risiko": 7166,
      "otomatis": 7167,
      "doa": 7168,
      "aer": 7169,
      "##turut": 7170,
      "persetujuan": 7171,
      "##ism": 7172,
      "##itori": 7173,
      "rup": 7174,
      "##entar": 7175,
      "mengenal": 7176,
      "material": 7177,
      "penderita": 7178,
      "kandang": 7179,
      "##faat": 7180,
      "sken": 7181,
      "##aca": 7182,
      "club": 7183,
      "##erjakan": 7184,
      "menyimpan": 7185,
      "179": 7186,
      "##wanya": 7187,
      "##entangan": 7188,
      "##ugerahi": 7189,
      "##atanya": 7190,
      "utsmaniyah": 7191,
      "gem": 7192,
      "perlawanan": 7193,
      "##ink": 7194,
      "metrop": 7195,
      "##och": 7196,
      "penyi": 7197,
      "damai": 7198,
      "perkaw": 7199,
      "associ": 7200,
      "partikel": 7201,
      "rac": 7202,
      "##ates": 7203,
      "peperangan": 7204,
      "kenyataan": 7205,
      "kakek": 7206,
      "pant": 7207,
      "aleks": 7208,
      "jun": 7209,
      "qur": 7210,
      "##ive": 7211,
      "menu": 7212,
      "##rys": 7213,
      "##rod": 7214,
      "bakat": 7215,
      "##rama": 7216,
      "tiang": 7217,
      "diadopsi": 7218,
      "fab": 7219,
      "nig": 7220,
      "berkel": 7221,
      "##elasan": 7222,
      "perawatan": 7223,
      "jej": 7224,
      "smk": 7225,
      "setara": 7226,
      "##esarkan": 7227,
      "##romy": 7228,
      "##ikh": 7229,
      "pangkat": 7230,
      "bervari": 7231,
      "##erankan": 7232,
      "mengenakan": 7233,
      "##erai": 7234,
      "##guna": 7235,
      "##unjukkan": 7236,
      "lokomotif": 7237,
      "nav": 7238,
      "##wati": 7239,
      "86": 7240,
      "##upu": 7241,
      "dikelola": 7242,
      "surv": 7243,
      "fase": 7244,
      "jati": 7245,
      "pengobatan": 7246,
      "##ano": 7247,
      "##ilangkan": 7248,
      "permaisuri": 7249,
      "##xi": 7250,
      "##oka": 7251,
      "kalender": 7252,
      "sesudah": 7253,
      "murni": 7254,
      "54": 7255,
      "vo": 7256,
      "pendeta": 7257,
      "beragama": 7258,
      "audi": 7259,
      "##eck": 7260,
      "72": 7261,
      "berturut": 7262,
      "selat": 7263,
      "komb": 7264,
      "##aksikan": 7265,
      "mayor": 7266,
      "##aborasi": 7267,
      "tembok": 7268,
      "dibantu": 7269,
      "##purna": 7270,
      "lembab": 7271,
      "58": 7272,
      "pemukiman": 7273,
      "melintasi": 7274,
      "cipta": 7275,
      "pertanya": 7276,
      "kabel": 7277,
      "memaksa": 7278,
      "##olitan": 7279,
      "1944": 7280,
      "tertulis": 7281,
      "kepolis": 7282,
      "voc": 7283,
      "##odo": 7284,
      "bervariasi": 7285,
      "##jah": 7286,
      "diterjemahkan": 7287,
      "aug": 7288,
      "institusi": 7289,
      "jema": 7290,
      "##ony": 7291,
      "banyaknya": 7292,
      "kehad": 7293,
      "pencarian": 7294,
      "##afs": 7295,
      "##17": 7296,
      "biz": 7297,
      "diw": 7298,
      "##ebo": 7299,
      "##uy": 7300,
      "kepolisian": 7301,
      "alb": 7302,
      "lump": 7303,
      "lor": 7304,
      "##under": 7305,
      "records": 7306,
      "budak": 7307,
      "fal": 7308,
      "riv": 7309,
      "1957": 7310,
      "domest": 7311,
      "rusak": 7312,
      "85": 7313,
      "dika": 7314,
      "carl": 7315,
      "pangan": 7316,
      "sosok": 7317,
      "wales": 7318,
      "mangk": 7319,
      "##ambung": 7320,
      "beda": 7321,
      "##oshi": 7322,
      "line": 7323,
      "integ": 7324,
      "99": 7325,
      "teknis": 7326,
      "tomb": 7327,
      "riset": 7328,
      "##ifera": 7329,
      "mempengaruhi": 7330,
      "infeksi": 7331,
      "##rib": 7332,
      "warta": 7333,
      "palembang": 7334,
      "tabel": 7335,
      "penur": 7336,
      "jet": 7337,
      "##onya": 7338,
      "##ogle": 7339,
      "diman": 7340,
      "dosen": 7341,
      "120": 7342,
      "##ajuan": 7343,
      "##oyang": 7344,
      "1956": 7345,
      "detik": 7346,
      "geografis": 7347,
      "menangani": 7348,
      "##zoa": 7349,
      "##ahaman": 7350,
      "selandia": 7351,
      "menyampaikan": 7352,
      "##oe": 7353,
      "sukar": 7354,
      "menyukai": 7355,
      "pendudukan": 7356,
      "##idasi": 7357,
      "dipert": 7358,
      "leluhur": 7359,
      "kerjasama": 7360,
      "seber": 7361,
      "sejauh": 7362,
      "menjadikannya": 7363,
      "mulut": 7364,
      "sepeda": 7365,
      "siang": 7366,
      "shah": 7367,
      "ditugaskan": 7368,
      "balap": 7369,
      "madras": 7370,
      "raf": 7371,
      "##eria": 7372,
      "laks": 7373,
      "shin": 7374,
      "melambangkan": 7375,
      "##fil": 7376,
      "cinc": 7377,
      "dipandang": 7378,
      "pemberian": 7379,
      "cil": 7380,
      "kro": 7381,
      "1941": 7382,
      "pertanyaan": 7383,
      "komposisi": 7384,
      "halus": 7385,
      "direncanakan": 7386,
      "05": 7387,
      "mengin": 7388,
      "##omet": 7389,
      "league": 7390,
      "mahkamah": 7391,
      "##work": 7392,
      "##oa": 7393,
      "paru": 7394,
      "ci": 7395,
      "##opter": 7396,
      "menurun": 7397,
      "##aharian": 7398,
      "federasi": 7399,
      "google": 7400,
      "##uhkan": 7401,
      "pura": 7402,
      "variasi": 7403,
      "minangka": 7404,
      "peninggalan": 7405,
      "##atalkan": 7406,
      "terjual": 7407,
      "##ejo": 7408,
      "hasan": 7409,
      "paroki": 7410,
      "##inspirasi": 7411,
      "konsentrasi": 7412,
      "jus": 7413,
      "sint": 7414,
      "##olehkan": 7415,
      "bib": 7416,
      "ulasan": 7417,
      "kok": 7418,
      "young": 7419,
      "##unjungan": 7420,
      "debutnya": 7421,
      "akar": 7422,
      "mempromosikan": 7423,
      "perkawinan": 7424,
      "1955": 7425,
      "organik": 7426,
      "wib": 7427,
      "##inggi": 7428,
      "hill": 7429,
      "kotak": 7430,
      "dvd": 7431,
      "##ahl": 7432,
      "armenia": 7433,
      "kesuksesan": 7434,
      "roman": 7435,
      "##ike": 7436,
      "bunuh": 7437,
      "berse": 7438,
      "fakta": 7439,
      "pokok": 7440,
      "sman": 7441,
      "teologi": 7442,
      "maya": 7443,
      "mineral": 7444,
      "meleb": 7445,
      "big": 7446,
      "orchidaceae": 7447,
      "jat": 7448,
      "memec": 7449,
      "##truktur": 7450,
      "pse": 7451,
      "lemp": 7452,
      "abdullah": 7453,
      "dianugerahi": 7454,
      "cairan": 7455,
      "##atannya": 7456,
      "timbul": 7457,
      "vit": 7458,
      "##esti": 7459,
      "keyak": 7460,
      "surakarta": 7461,
      "diperl": 7462,
      "sidang": 7463,
      "sop": 7464,
      "##ision": 7465,
      "penulisan": 7466,
      "wajib": 7467,
      "produsen": 7468,
      "minangkabau": 7469,
      "lampu": 7470,
      "kekayaan": 7471,
      "penurunan": 7472,
      "kebenaran": 7473,
      "restoran": 7474,
      "##off": 7475,
      "miskin": 7476,
      "##rut": 7477,
      "##elop": 7478,
      "cip": 7479,
      "keberh": 7480,
      "07": 7481,
      "fran": 7482,
      "liar": 7483,
      "melepaskan": 7484,
      "##adaptasi": 7485,
      "##ult": 7486,
      "tant": 7487,
      "terdaftar": 7488,
      "klan": 7489,
      "formal": 7490,
      "microsoft": 7491,
      "rapat": 7492,
      "##fan": 7493,
      "sosialis": 7494,
      "monumen": 7495,
      "ketuj": 7496,
      "miconia": 7497,
      "angkutan": 7498,
      "##hip": 7499,
      "pasukannya": 7500,
      "rs": 7501,
      "ditempuh": 7502,
      "julukan": 7503,
      "dayak": 7504,
      "gay": 7505,
      "yeh": 7506,
      "##wu": 7507,
      "harta": 7508,
      "tech": 7509,
      "kardinal": 7510,
      "jon": 7511,
      "menunjuk": 7512,
      "kemajuan": 7513,
      "##yr": 7514,
      "bawang": 7515,
      "senang": 7516,
      "definisi": 7517,
      "dipasang": 7518,
      "##irannya": 7519,
      "##endiri": 7520,
      "persi": 7521,
      "cucu": 7522,
      "office": 7523,
      "##ihir": 7524,
      "simon": 7525,
      "fox": 7526,
      "diterapkan": 7527,
      "box": 7528,
      "klor": 7529,
      "hasilnya": 7530,
      "03": 7531,
      "mengap": 7532,
      "##ole": 7533,
      "investasi": 7534,
      "##ele": 7535,
      "letnan": 7536,
      "berkurang": 7537,
      "kacang": 7538,
      "##lu": 7539,
      "##aritas": 7540,
      "lab": 7541,
      "mena": 7542,
      "##iraan": 7543,
      "internal": 7544,
      "corporation": 7545,
      "kega": 7546,
      "karyawan": 7547,
      "street": 7548,
      "keselamatan": 7549,
      "08": 7550,
      "teror": 7551,
      "jim": 7552,
      "htt": 7553,
      "ruk": 7554,
      "xii": 7555,
      "adv": 7556,
      "##uta": 7557,
      "banjir": 7558,
      "800": 7559,
      "nic": 7560,
      "tropis": 7561,
      "dikuasai": 7562,
      "dijalan": 7563,
      "##ajikan": 7564,
      "##anam": 7565,
      "manis": 7566,
      "varian": 7567,
      "legislatif": 7568,
      "tas": 7569,
      "pengelol": 7570,
      "##bus": 7571,
      "##ogo": 7572,
      "purn": 7573,
      "##elang": 7574,
      "ketujuh": 7575,
      "##ihi": 7576,
      "pemberontak": 7577,
      "202": 7578,
      "misteri": 7579,
      "domestik": 7580,
      "letaknya": 7581,
      "63": 7582,
      "menyanyikan": 7583,
      "jurnalis": 7584,
      "bersih": 7585,
      "##idah": 7586,
      "memerankan": 7587,
      "##egoro": 7588,
      "dilantik": 7589,
      "frekuensi": 7590,
      "tentu": 7591,
      "tib": 7592,
      "##amana": 7593,
      "persamaan": 7594,
      "modal": 7595,
      "##umpai": 7596,
      "1943": 7597,
      "##ihatkan": 7598,
      "ratusan": 7599,
      "76": 7600,
      "paruh": 7601,
      "tetangga": 7602,
      "katedral": 7603,
      "soekarno": 7604,
      "efisi": 7605,
      "batavia": 7606,
      "menerap": 7607,
      "konon": 7608,
      "leon": 7609,
      "1952": 7610,
      "##migrasi": 7611,
      "adaptasi": 7612,
      "##olan": 7613,
      "##andu": 7614,
      "are": 7615,
      "eugenia": 7616,
      "##emon": 7617,
      "74": 7618,
      "##led": 7619,
      "##chen": 7620,
      "insiden": 7621,
      "peluncuran": 7622,
      "uji": 7623,
      "mandiri": 7624,
      "##ova": 7625,
      "bod": 7626,
      "dri": 7627,
      "produc": 7628,
      "penari": 7629,
      "mendekati": 7630,
      "terang": 7631,
      "##obaan": 7632,
      "##tap": 7633,
      "kerap": 7634,
      "##agar": 7635,
      "berpikir": 7636,
      "##ilo": 7637,
      "kunjungan": 7638,
      "back": 7639,
      "##ajahan": 7640,
      "liu": 7641,
      "pros": 7642,
      "wes": 7643,
      "kebi": 7644,
      "batalyon": 7645,
      "95": 7646,
      "pengurus": 7647,
      "diaw": 7648,
      "imp": 7649,
      "1939": 7650,
      "ss": 7651,
      "bersatu": 7652,
      "pengelolaan": 7653,
      "hancur": 7654,
      "digelar": 7655,
      "dimaksudkan": 7656,
      "##our": 7657,
      "menghar": 7658,
      "##antau": 7659,
      "##lavia": 7660,
      "konsul": 7661,
      "tenis": 7662,
      "sains": 7663,
      "##upsi": 7664,
      "smith": 7665,
      "dhar": 7666,
      "##ition": 7667,
      "billboard": 7668,
      "disajikan": 7669,
      "persiapan": 7670,
      "##mann": 7671,
      "##uluki": 7672,
      "membedakan": 7673,
      "tin": 7674,
      "##oides": 7675,
      "dieks": 7676,
      "pseud": 7677,
      "semin": 7678,
      "berbagi": 7679,
      "dilarang": 7680,
      "##ball": 7681,
      "bit": 7682,
      "personel": 7683,
      "##ull": 7684,
      "##gapan": 7685,
      "games": 7686,
      "kelak": 7687,
      "menandai": 7688,
      "fenomena": 7689,
      "wartawan": 7690,
      "##aster": 7691,
      "##adiyah": 7692,
      "##iru": 7693,
      "maksud": 7694,
      "serius": 7695,
      "77": 7696,
      "betina": 7697,
      "mengeks": 7698,
      "##aring": 7699,
      "abb": 7700,
      "takut": 7701,
      "1954": 7702,
      "##ominasikan": 7703,
      "##adar": 7704,
      "##app": 7705,
      "elec": 7706,
      "bioskop": 7707,
      "##anggar": 7708,
      "##adan": 7709,
      "chann": 7710,
      "patri": 7711,
      "jurnal": 7712,
      "67": 7713,
      "hany": 7714,
      "memahami": 7715,
      "kehadiran": 7716,
      "beta": 7717,
      "##antum": 7718,
      "dosa": 7719,
      "perbaikan": 7720,
      "ribuan": 7721,
      "konteks": 7722,
      "##itungan": 7723,
      "peluru": 7724,
      "anal": 7725,
      "pecah": 7726,
      "news": 7727,
      "semula": 7728,
      "hidrogen": 7729,
      "alun": 7730,
      "segi": 7731,
      "naga": 7732,
      "04": 7733,
      "tahanan": 7734,
      "mengor": 7735,
      "##adaban": 7736,
      "mengganti": 7737,
      "##rab": 7738,
      "hektar": 7739,
      "kajian": 7740,
      "penyimp": 7741,
      "eliz": 7742,
      "infanteri": 7743,
      "pikiran": 7744,
      "##elapan": 7745,
      "sempurna": 7746,
      "shang": 7747,
      "##irus": 7748,
      "bass": 7749,
      "mengant": 7750,
      "membela": 7751,
      "##upai": 7752,
      "house": 7753,
      "alexander": 7754,
      "organisme": 7755,
      "##arankan": 7756,
      "##impunan": 7757,
      "distribusi": 7758,
      "keyakinan": 7759,
      "##cher": 7760,
      "makin": 7761,
      "cast": 7762,
      "level": 7763,
      "kalimat": 7764,
      "hendak": 7765,
      "##intai": 7766,
      "penyair": 7767,
      "cincin": 7768,
      "karakteristik": 7769,
      "dasarnya": 7770,
      "menerapkan": 7771,
      "cos": 7772,
      "##ilikan": 7773,
      "nada": 7774,
      "bea": 7775,
      "tap": 7776,
      "rumahnya": 7777,
      "##araja": 7778,
      "kandungan": 7779,
      "juri": 7780,
      "##tensi": 7781,
      "##eluk": 7782,
      "##ewar": 7783,
      "pungg": 7784,
      "68": 7785,
      "universal": 7786,
      "##ross": 7787,
      "berw": 7788,
      "dna": 7789,
      "##ering": 7790,
      "##oku": 7791,
      "skenario": 7792,
      "platform": 7793,
      "veg": 7794,
      "tanggung": 7795,
      "syd": 7796,
      "kebakaran": 7797,
      "citra": 7798,
      "roket": 7799,
      "seharusnya": 7800,
      "tegal": 7801,
      "jantan": 7802,
      "membahas": 7803,
      "kolam": 7804,
      "statis": 7805,
      "kp": 7806,
      "tuanya": 7807,
      "ix": 7808,
      "dulunya": 7809,
      "wawancara": 7810,
      "##ville": 7811,
      "memastikan": 7812,
      "##fr": 7813,
      "##zar": 7814,
      "dengannya": 7815,
      "mom": 7816,
      "dides": 7817,
      "##onjol": 7818,
      "peradaban": 7819,
      "jepara": 7820,
      "dinyanyikan": 7821,
      "09": 7822,
      "baris": 7823,
      "##oyo": 7824,
      "boe": 7825,
      "mekanisme": 7826,
      "hidangan": 7827,
      "##xia": 7828,
      "boh": 7829,
      "keset": 7830,
      "##sey": 7831,
      "kurik": 7832,
      "bug": 7833,
      "fad": 7834,
      "##inga": 7835,
      "##ivora": 7836,
      "1953": 7837,
      "##adat": 7838,
      "##lon": 7839,
      "##alas": 7840,
      "##elajaran": 7841,
      "nir": 7842,
      "paman": 7843,
      "wu": 7844,
      "wujud": 7845,
      "##otik": 7846,
      "kang": 7847,
      "akademik": 7848,
      "88": 7849,
      "menjawab": 7850,
      "andr": 7851,
      "mitologi": 7852,
      "##rip": 7853,
      "landasan": 7854,
      "membagi": 7855,
      "tertutup": 7856,
      "chang": 7857,
      "ditinggal": 7858,
      "dinominasikan": 7859,
      "##ublikasikan": 7860,
      "dukuh": 7861,
      "##lines": 7862,
      "menggabungkan": 7863,
      "##undang": 7864,
      "percobaan": 7865,
      "##esaan": 7866,
      "karen": 7867,
      "atmos": 7868,
      "##edonia": 7869,
      "##oper": 7870,
      "babi": 7871,
      "golden": 7872,
      "##pit": 7873,
      "baku": 7874,
      "dang": 7875,
      "budi": 7876,
      "memenangi": 7877,
      "alian": 7878,
      "param": 7879,
      "mengoperasikan": 7880,
      "menurunkan": 7881,
      "kadi": 7882,
      "pendah": 7883,
      "pelanggan": 7884,
      "milan": 7885,
      "tahunnya": 7886,
      "princ": 7887,
      "british": 7888,
      "yg": 7889,
      "jemaat": 7890,
      "kegagalan": 7891,
      "madrasah": 7892,
      "##ekaran": 7893,
      "ann": 7894,
      "pelindung": 7895,
      "##antium": 7896,
      "bambu": 7897,
      "koran": 7898,
      "##ayar": 7899,
      "berkisar": 7900,
      "menikmati": 7901,
      "##andra": 7902,
      "rudal": 7903,
      "bund": 7904,
      "metal": 7905,
      "syah": 7906,
      "lingkaran": 7907,
      "##edak": 7908,
      "good": 7909,
      "ling": 7910,
      "memanggil": 7911,
      "diperint": 7912,
      "ry": 7913,
      "##for": 7914,
      "##ms": 7915,
      "menunggu": 7916,
      "sydney": 7917,
      "poales": 7918,
      "##ahi": 7919,
      "kombinasi": 7920,
      "##inat": 7921,
      "kw": 7922,
      "tarik": 7923,
      "penjelasan": 7924,
      "##panjang": 7925,
      "##asana": 7926,
      "berjuang": 7927,
      "sunan": 7928,
      "tat": 7929,
      "##etika": 7930,
      "bask": 7931,
      "##iksa": 7932,
      "melarang": 7933,
      "##inder": 7934,
      "##ion": 7935,
      "##icus": 7936,
      "manchester": 7937,
      "##oja": 7938,
      "##onstr": 7939,
      "##field": 7940,
      "hon": 7941,
      "resep": 7942,
      "hus": 7943,
      "herb": 7944,
      "lomb": 7945,
      "##tel": 7946,
      "##66": 7947,
      "##ald": 7948,
      "##jarah": 7949,
      "##edit": 7950,
      "saksi": 7951,
      "chart": 7952,
      "wayang": 7953,
      "##agen": 7954,
      "menonjol": 7955,
      "berkumpul": 7956,
      "pembelajaran": 7957,
      "dimanfaatkan": 7958,
      "hamil": 7959,
      "wi": 7960,
      "pertam": 7961,
      "alli": 7962,
      "iso": 7963,
      "jadwal": 7964,
      "mengelola": 7965,
      "berkas": 7966,
      "##hu": 7967,
      "##otanya": 7968,
      "religi": 7969,
      "##kom": 7970,
      "pedang": 7971,
      "georgia": 7972,
      "69": 7973,
      "muara": 7974,
      "##hire": 7975,
      "dicatat": 7976,
      "radar": 7977,
      "institute": 7978,
      "##esuaikan": 7979,
      "petern": 7980,
      "tuduhan": 7981,
      "bra": 7982,
      "##ure": 7983,
      "year": 7984,
      "saudi": 7985,
      "kekurangan": 7986,
      "tubuhnya": 7987,
      "elizabeth": 7988,
      "97": 7989,
      "##his": 7990,
      "##ame": 7991,
      "permas": 7992,
      "od": 7993,
      "##row": 7994,
      "menghadiri": 7995,
      "coklat": 7996,
      "menyusun": 7997,
      "penyebaran": 7998,
      "chic": 7999,
      "panggilan": 8000,
      "lurus": 8001,
      "kepemilikan": 8002,
      "##kat": 8003,
      "memori": 8004,
      "tersendiri": 8005,
      "evolusi": 8006,
      "berbahaya": 8007,
      "nagari": 8008,
      "78": 8009,
      "perumahan": 8010,
      "melebihi": 8011,
      "airlines": 8012,
      "##tivitas": 8013,
      "beat": 8014,
      "dak": 8015,
      "harinya": 8016,
      "mich": 8017,
      "referensi": 8018,
      "##ucapkan": 8019,
      "ibnu": 8020,
      "##hatikan": 8021,
      "channel": 8022,
      "boeing": 8023,
      "##van": 8024,
      "##arahan": 8025,
      "karl": 8026,
      "berencana": 8027,
      "##onfir": 8028,
      "##ekatan": 8029,
      "rumania": 8030,
      "dibesarkan": 8031,
      "##embahan": 8032,
      "##kuit": 8033,
      "metropolitan": 8034,
      "##inis": 8035,
      "##asifikasi": 8036,
      "society": 8037,
      "##mp": 8038,
      "pandang": 8039,
      "##annes": 8040,
      "1951": 8041,
      "##ello": 8042,
      "over": 8043,
      "##ampur": 8044,
      "mendarat": 8045,
      "ditur": 8046,
      "doktor": 8047,
      "rasio": 8048,
      "fried": 8049,
      "##arya": 8050,
      "memisahkan": 8051,
      "uc": 8052,
      "atlet": 8053,
      "sesama": 8054,
      "##hai": 8055,
      "##elaskan": 8056,
      "kanak": 8057,
      "nowiki": 8058,
      "##asari": 8059,
      "##tha": 8060,
      "hard": 8061,
      "imper": 8062,
      "##regnum": 8063,
      "ladang": 8064,
      "wall": 8065,
      "perman": 8066,
      "susunan": 8067,
      "minum": 8068,
      "##utasi": 8069,
      "kritis": 8070,
      "uap": 8071,
      "##med": 8072,
      "##iku": 8073,
      "##anja": 8074,
      "kue": 8075,
      "##encanaan": 8076,
      "merekam": 8077,
      "mempering": 8078,
      "##ski": 8079,
      "##wara": 8080,
      "penak": 8081,
      "times": 8082,
      "penerima": 8083,
      "dijuluki": 8084,
      "beralih": 8085,
      "jay": 8086,
      "porifera": 8087,
      "bersaing": 8088,
      "##erson": 8089,
      "she": 8090,
      "memperluas": 8091,
      "gugus": 8092,
      "menerus": 8093,
      "rama": 8094,
      "bulat": 8095,
      "terbunuh": 8096,
      "berpusat": 8097,
      "kurikulum": 8098,
      "diserahkan": 8099,
      "impati": 8100,
      "how": 8101,
      "toy": 8102,
      "batuan": 8103,
      "##len": 8104,
      "##inaan": 8105,
      "mulanya": 8106,
      "keberhasilan": 8107,
      "fav": 8108,
      "jr": 8109,
      "rod": 8110,
      "##kit": 8111,
      "##iaceae": 8112,
      "berkompet": 8113,
      "life": 8114,
      "##ansk": 8115,
      "disertai": 8116,
      "##ady": 8117,
      "sadar": 8118,
      "impatiens": 8119,
      "##br": 8120,
      "perencanaan": 8121,
      "##lie": 8122,
      "mosk": 8123,
      "disana": 8124,
      "##idat": 8125,
      "usai": 8126,
      "front": 8127,
      "kebiasaan": 8128,
      "jung": 8129,
      "##fikasi": 8130,
      "siklus": 8131,
      "##elihara": 8132,
      "tali": 8133,
      "##akia": 8134,
      "musa": 8135,
      "##isisi": 8136,
      "juru": 8137,
      "cla": 8138,
      "pemekaran": 8139,
      "adiknya": 8140,
      "kolonel": 8141,
      "paket": 8142,
      "mode": 8143,
      "##adw": 8144,
      "jabatannya": 8145,
      "sele": 8146,
      "kuala": 8147,
      "pejuang": 8148,
      "je": 8149,
      "##inum": 8150,
      "mengendalikan": 8151,
      "ال": 8152,
      "terhubung": 8153,
      "tj": 8154,
      "##mal": 8155,
      "visual": 8156,
      "association": 8157,
      "gp": 8158,
      "kaz": 8159,
      "sentr": 8160,
      "athena": 8161,
      "96": 8162,
      "##etu": 8163,
      "##trans": 8164,
      "rawa": 8165,
      "petugas": 8166,
      "finlandia": 8167,
      "##ador": 8168,
      "est": 8169,
      "berfokus": 8170,
      "beng": 8171,
      "chrys": 8172,
      "##ijing": 8173,
      "bayern": 8174,
      "bersejarah": 8175,
      "gard": 8176,
      "wisat": 8177,
      "pakar": 8178,
      "##apahit": 8179,
      "bukunya": 8180,
      "##rahim": 8181,
      "ic": 8182,
      "subregnum": 8183,
      "##tir": 8184,
      "##alisi": 8185,
      "baga": 8186,
      "parazoa": 8187,
      "youtu": 8188,
      "asy": 8189,
      "biologi": 8190,
      "majapahit": 8191,
      "memindahkan": 8192,
      "aktivis": 8193,
      "##zer": 8194,
      "##vo": 8195,
      "akting": 8196,
      "tra": 8197,
      "belakangan": 8198,
      "ced": 8199,
      "mons": 8200,
      "##mon": 8201,
      "syekh": 8202,
      "diturunkan": 8203,
      "wisatawan": 8204,
      "##wana": 8205,
      "maz": 8206,
      "larutan": 8207,
      "berperang": 8208,
      "power": 8209,
      "instrumen": 8210,
      "##bl": 8211,
      "##ever": 8212,
      "cua": 8213,
      "mala": 8214,
      "kin": 8215,
      "atmosfer": 8216,
      "41": 8217,
      "##sip": 8218,
      "##oso": 8219,
      "menekankan": 8220,
      "##agn": 8221,
      "shan": 8222,
      "motif": 8223,
      "semesta": 8224,
      "##sburg": 8225,
      "perbu": 8226,
      "##turkan": 8227,
      "colum": 8228,
      "mov": 8229,
      "##ahal": 8230,
      "merc": 8231,
      "ste": 8232,
      "250": 8233,
      "port": 8234,
      "bara": 8235,
      "pengarang": 8236,
      "dijelaskan": 8237,
      "##sc": 8238,
      "##ister": 8239,
      "pictures": 8240,
      "cend": 8241,
      "uu": 8242,
      "remp": 8243,
      "mengam": 8244,
      "forum": 8245,
      "##onda": 8246,
      "##itr": 8247,
      "moral": 8248,
      "cantik": 8249,
      "dimensi": 8250,
      "perekonom": 8251,
      "menyerupai": 8252,
      "semasa": 8253,
      "vik": 8254,
      "##ewarganegaraan": 8255,
      "87": 8256,
      "jazz": 8257,
      "##zhou": 8258,
      "gerak": 8259,
      "700": 8260,
      "oh": 8261,
      "penutup": 8262,
      "yusuf": 8263,
      "##agu": 8264,
      "dikaitkan": 8265,
      "##wijaya": 8266,
      "jahat": 8267,
      "pinggiran": 8268,
      "kekh": 8269,
      "##onald": 8270,
      "sesungg": 8271,
      "menghormati": 8272,
      "tump": 8273,
      "potongan": 8274,
      "98": 8275,
      "berkewarganegaraan": 8276,
      "manag": 8277,
      "dinam": 8278,
      "160": 8279,
      "01": 8280,
      "klaim": 8281,
      "genre": 8282,
      "pemegang": 8283,
      "derajat": 8284,
      "aliansi": 8285,
      "besaran": 8286,
      "petual": 8287,
      "rektor": 8288,
      "kai": 8289,
      "memandang": 8290,
      "##onegoro": 8291,
      "dipegang": 8292,
      "##uke": 8293,
      "tamb": 8294,
      "kesej": 8295,
      "tau": 8296,
      "##etas": 8297,
      "keterangan": 8298,
      "berkompetisi": 8299,
      "##etis": 8300,
      "chen": 8301,
      "##arjo": 8302,
      "proto": 8303,
      "##ecil": 8304,
      "pembantu": 8305,
      "sent": 8306,
      "penampil": 8307,
      "pertar": 8308,
      "permasalahan": 8309,
      "enzim": 8310,
      "luth": 8311,
      "##sea": 8312,
      "sesungguhnya": 8313,
      "##tempor": 8314,
      "shi": 8315,
      "##fiah": 8316,
      "##amar": 8317,
      "memperbaiki": 8318,
      "ent": 8319,
      "lumpur": 8320,
      "gib": 8321,
      "##elat": 8322,
      "pesat": 8323,
      "gran": 8324,
      "muhammadiyah": 8325,
      "##alon": 8326,
      "perasaan": 8327,
      "##ancar": 8328,
      "puteri": 8329,
      "mek": 8330,
      "##tle": 8331,
      "mengejar": 8332,
      "cadangan": 8333,
      "yon": 8334,
      "persa": 8335,
      "##aib": 8336,
      "##ohol": 8337,
      "membuktikan": 8338,
      "marin": 8339,
      "ile": 8340,
      "teritori": 8341,
      "pemerik": 8342,
      "kamu": 8343,
      "permanen": 8344,
      "sebut": 8345,
      "aq": 8346,
      "##rok": 8347,
      "pengamb": 8348,
      "##onim": 8349,
      "kerabat": 8350,
      "yan": 8351,
      "##misi": 8352,
      "khal": 8353,
      "permukiman": 8354,
      "51": 8355,
      "qing": 8356,
      "##fe": 8357,
      "berguna": 8358,
      "pemer": 8359,
      "##trin": 8360,
      "kri": 8361,
      "##ardi": 8362,
      "infras": 8363,
      "84": 8364,
      "rena": 8365,
      "kadipaten": 8366,
      "pengend": 8367,
      "##onc": 8368,
      "##ahana": 8369,
      "menempuh": 8370,
      "rhod": 8371,
      "pengambilan": 8372,
      "muatan": 8373,
      "kontak": 8374,
      "diperb": 8375,
      "bizantium": 8376,
      "menyusul": 8377,
      "berhak": 8378,
      "ujian": 8379,
      "awak": 8380,
      "curah": 8381,
      "natal": 8382,
      "au": 8383,
      "##isahan": 8384,
      "helik": 8385,
      "##ru": 8386,
      "menutup": 8387,
      "##ginya": 8388,
      "nantinya": 8389,
      "gener": 8390,
      "mada": 8391,
      "putera": 8392,
      "tit": 8393,
      "pemahaman": 8394,
      "anggur": 8395,
      "leh": 8396,
      "##andanya": 8397,
      "anggotanya": 8398,
      "##untutan": 8399,
      "perekonomian": 8400,
      "diing": 8401,
      "jena": 8402,
      "##ies": 8403,
      "kadar": 8404,
      "penambahan": 8405,
      "surga": 8406,
      "habis": 8407,
      "kub": 8408,
      "cup": 8409,
      "konstantin": 8410,
      "##ous": 8411,
      "operasional": 8412,
      "kotamad": 8413,
      "##akm": 8414,
      "beijing": 8415,
      "pia": 8416,
      "menahan": 8417,
      "pertarungan": 8418,
      "alas": 8419,
      "lambat": 8420,
      "##tip": 8421,
      "178": 8422,
      "##jikan": 8423,
      "mengatasi": 8424,
      "kurangnya": 8425,
      "mengembalikan": 8426,
      "##ajang": 8427,
      "##anggaran": 8428,
      "##barkan": 8429,
      "##ujudkan": 8430,
      "tiket": 8431,
      "audisi": 8432,
      "dki": 8433,
      "paku": 8434,
      "pemro": 8435,
      "##diakan": 8436,
      "ibrahim": 8437,
      "##ridge": 8438,
      "pasc": 8439,
      "##ology": 8440,
      "##bour": 8441,
      "##luan": 8442,
      "arsitek": 8443,
      "menegaskan": 8444,
      "darurat": 8445,
      "menyebutnya": 8446,
      "disediakan": 8447,
      "92": 8448,
      "##adaran": 8449,
      "##une": 8450,
      "basket": 8451,
      "menyimp": 8452,
      "##sari": 8453,
      "keperluan": 8454,
      "eth": 8455,
      "tay": 8456,
      "##nah": 8457,
      "##angkatan": 8458,
      "tent": 8459,
      "salvia": 8460,
      "spesifik": 8461,
      "menjalin": 8462,
      "cuaca": 8463,
      "##enya": 8464,
      "road": 8465,
      "fit": 8466,
      "koalisi": 8467,
      "##elam": 8468,
      "formasi": 8469,
      "berpeng": 8470,
      "terluka": 8471,
      "properti": 8472,
      "perkiraan": 8473,
      "1938": 8474,
      "samar": 8475,
      "victoria": 8476,
      "layak": 8477,
      "ditolak": 8478,
      "f1": 8479,
      "from": 8480,
      "##arin": 8481,
      "konten": 8482,
      "##unting": 8483,
      "##ujung": 8484,
      "##jur": 8485,
      "apost": 8486,
      "##ahap": 8487,
      "rezim": 8488,
      "kandidat": 8489,
      "##kitan": 8490,
      "##oksida": 8491,
      "jangan": 8492,
      "177": 8493,
      "araneidae": 8494,
      "punggung": 8495,
      "asasi": 8496,
      "za": 8497,
      "membawakan": 8498,
      "##inter": 8499,
      "perunggu": 8500,
      "gratis": 8501,
      "bermula": 8502,
      "##kp": 8503,
      "youtube": 8504,
      "##amer": 8505,
      "pelukis": 8506,
      "koin": 8507,
      "kedalam": 8508,
      "kotamadya": 8509,
      "memicu": 8510,
      "tantangan": 8511,
      "stan": 8512,
      "pram": 8513,
      "ketentuan": 8514,
      "pribumi": 8515,
      "sirkuit": 8516,
      "munculnya": 8517,
      "way": 8518,
      "romb": 8519,
      "pengeb": 8520,
      "topik": 8521,
      "menyetujui": 8522,
      "sasaran": 8523,
      "##ense": 8524,
      "erat": 8525,
      "nelayan": 8526,
      "interaksi": 8527,
      "chicago": 8528,
      "spiri": 8529,
      "disetujui": 8530,
      "network": 8531,
      "kenn": 8532,
      "klasifikasi": 8533,
      "otot": 8534,
      "korupsi": 8535,
      "berdarah": 8536,
      "singkatan": 8537,
      "kasar": 8538,
      "team": 8539,
      "christian": 8540,
      "agromy": 8541,
      "keraton": 8542,
      "##ontrol": 8543,
      "penerus": 8544,
      "82": 8545,
      "seks": 8546,
      "##atria": 8547,
      "saraf": 8548,
      "mengu": 8549,
      "pinj": 8550,
      "tergabung": 8551,
      "##ors": 8552,
      "83": 8553,
      "nick": 8554,
      "##orf": 8555,
      "##itter": 8556,
      "che": 8557,
      "##elm": 8558,
      "##das": 8559,
      "##baru": 8560,
      "##orasi": 8561,
      "##rov": 8562,
      "wood": 8563,
      "##eme": 8564,
      "berta": 8565,
      "##egor": 8566,
      "##udin": 8567,
      "diminta": 8568,
      "terinspirasi": 8569,
      "cho": 8570,
      "##suf": 8571,
      "arch": 8572,
      "eksper": 8573,
      "letak": 8574,
      "meneruskan": 8575,
      "mitra": 8576,
      "##ges": 8577,
      "pengawasan": 8578,
      "1933": 8579,
      "hop": 8580,
      "##ury": 8581,
      "##oll": 8582,
      "penangk": 8583,
      "##anjangan": 8584,
      "##rium": 8585,
      "##ogon": 8586,
      "persah": 8587,
      "rempah": 8588,
      "1918": 8589,
      "mengusulkan": 8590,
      "ug": 8591,
      "89": 8592,
      "girl": 8593,
      "mim": 8594,
      "##rof": 8595,
      "isma": 8596,
      "walau": 8597,
      "spec": 8598,
      "broad": 8599,
      "allium": 8600,
      "that": 8601,
      "pemandangan": 8602,
      "##nie": 8603,
      "vokalis": 8604,
      "##ekolah": 8605,
      "dokumenter": 8606,
      "arena": 8607,
      "dikelilingi": 8608,
      "flu": 8609,
      "1000": 8610,
      "badai": 8611,
      "##yd": 8612,
      "##iao": 8613,
      "lamp": 8614,
      "persahabatan": 8615,
      "rang": 8616,
      "##omend": 8617,
      "sho": 8618,
      "rantai": 8619,
      "##aro": 8620,
      "##angnya": 8621,
      "##embunyi": 8622,
      "lapis": 8623,
      "sq": 8624,
      "kru": 8625,
      "sai": 8626,
      "mahal": 8627,
      "penganut": 8628,
      "cyperaceae": 8629,
      "keahl": 8630,
      "##rey": 8631,
      "bela": 8632,
      "bagaiman": 8633,
      "angel": 8634,
      "nad": 8635,
      "jagung": 8636,
      "##estor": 8637,
      "cc": 8638,
      "visi": 8639,
      "magn": 8640,
      "cre": 8641,
      "memengaruhi": 8642,
      "##je": 8643,
      "##istribus": 8644,
      "bulg": 8645,
      "blu": 8646,
      "albert": 8647,
      "yuan": 8648,
      "##inah": 8649,
      "dihuni": 8650,
      "##enjang": 8651,
      "pelaku": 8652,
      "sisanya": 8653,
      "rid": 8654,
      "post": 8655,
      "dijumpai": 8656,
      "merusak": 8657,
      "dream": 8658,
      "sulung": 8659,
      "barisan": 8660,
      "##ign": 8661,
      "##eff": 8662,
      "madrid": 8663,
      "bait": 8664,
      "murah": 8665,
      "tambang": 8666,
      "utusan": 8667,
      "dp": 8668,
      "sesi": 8669,
      "##ilitas": 8670,
      "senat": 8671,
      "dijalankan": 8672,
      "py": 8673,
      "##ois": 8674,
      "bunyi": 8675,
      "kosong": 8676,
      "chir": 8677,
      "east": 8678,
      "##ichi": 8679,
      "indo": 8680,
      "kiner": 8681,
      "pengas": 8682,
      "akb": 8683,
      "##sky": 8684,
      "pengertian": 8685,
      "##eling": 8686,
      "1935": 8687,
      "##gam": 8688,
      "selam": 8689,
      "tangerang": 8690,
      "pelanggaran": 8691,
      "mulia": 8692,
      "##ahter": 8693,
      "berangg": 8694,
      "filsuf": 8695,
      "hein": 8696,
      "direkam": 8697,
      "kesadaran": 8698,
      "madura": 8699,
      "##ampa": 8700,
      "batak": 8701,
      "##embahkan": 8702,
      "130": 8703,
      "kawan": 8704,
      "tuntutan": 8705,
      "aur": 8706,
      "memperlihatkan": 8707,
      "##arga": 8708,
      "nobel": 8709,
      "yam": 8710,
      "berharap": 8711,
      "lemak": 8712,
      "anna": 8713,
      "1937": 8714,
      "gat": 8715,
      "##otakan": 8716,
      "helikopter": 8717,
      "cin": 8718,
      "puc": 8719,
      "##ambar": 8720,
      "dipergunakan": 8721,
      "jenazah": 8722,
      "baju": 8723,
      "gold": 8724,
      "penyimpanan": 8725,
      "pembel": 8726,
      "ternak": 8727,
      "dimenangkan": 8728,
      "conc": 8729,
      "galaksi": 8730,
      "infrastruktur": 8731,
      "wad": 8732,
      "##olahan": 8733,
      "kontempor": 8734,
      "kastil": 8735,
      "opera": 8736,
      "general": 8737,
      "dicapai": 8738,
      "lord": 8739,
      "putrinya": 8740,
      "##ahteraan": 8741,
      "##eti": 8742,
      "diisi": 8743,
      "merayakan": 8744,
      "perhitungan": 8745,
      "nak": 8746,
      "##lakukan": 8747,
      "wadah": 8748,
      "##itia": 8749,
      "perikan": 8750,
      "doktrin": 8751,
      "nil": 8752,
      "soeh": 8753,
      "kontribusi": 8754,
      "dc": 8755,
      "indeks": 8756,
      "shar": 8757,
      "persekutu": 8758,
      "monarki": 8759,
      "trip": 8760,
      "erica": 8761,
      "pengec": 8762,
      "korps": 8763,
      "kesejahteraan": 8764,
      "tk": 8765,
      "##ariat": 8766,
      "aneh": 8767,
      "kontemporer": 8768,
      "pedesaan": 8769,
      "berleb": 8770,
      "konsili": 8771,
      "pewaris": 8772,
      "wik": 8773,
      "mengizinkan": 8774,
      "spr": 8775,
      "hik": 8776,
      "psikologi": 8777,
      "##gas": 8778,
      "##ogan": 8779,
      "anat": 8780,
      "##buhkan": 8781,
      "lisensi": 8782,
      "yun": 8783,
      "##obatkan": 8784,
      "##ungkap": 8785,
      "hawai": 8786,
      "kristal": 8787,
      "1936": 8788,
      "##antis": 8789,
      "fem": 8790,
      "##etes": 8791,
      "##otan": 8792,
      "cem": 8793,
      "konsumen": 8794,
      "riway": 8795,
      "##plin": 8796,
      "##opel": 8797,
      "atl": 8798,
      "sdn": 8799,
      "tembakan": 8800,
      "him": 8801,
      "mengajarkan": 8802,
      "perikanan": 8803,
      "menaklukkan": 8804,
      "membentang": 8805,
      "gan": 8806,
      "brand": 8807,
      "operator": 8808,
      "muka": 8809,
      "seoul": 8810,
      "awan": 8811,
      "bre": 8812,
      "kotanya": 8813,
      "##integ": 8814,
      "makedonia": 8815,
      "79": 8816,
      "##yana": 8817,
      "ekspor": 8818,
      "ds": 8819,
      "##ject": 8820,
      "kembar": 8821,
      "zhang": 8822,
      "tenggelam": 8823,
      "ever": 8824,
      "kip": 8825,
      "##hol": 8826,
      "terlepas": 8827,
      "logo": 8828,
      "herbivora": 8829,
      "bertar": 8830,
      "hollywood": 8831,
      "pengamatan": 8832,
      "japan": 8833,
      "mengadopsi": 8834,
      "karet": 8835,
      "##kota": 8836,
      "paras": 8837,
      "##akmuran": 8838,
      "ledakan": 8839,
      "alm": 8840,
      "##cl": 8841,
      "server": 8842,
      "##enalan": 8843,
      "suasana": 8844,
      "transfer": 8845,
      "bulgaria": 8846,
      "kewajib": 8847,
      "kandung": 8848,
      "##eteksi": 8849,
      "dipisahkan": 8850,
      "menghilangkan": 8851,
      "##alifah": 8852,
      "penu": 8853,
      "sony": 8854,
      "pier": 8855,
      "##bulan": 8856,
      "penyiaran": 8857,
      "kroasia": 8858,
      "menampung": 8859,
      "##omer": 8860,
      "pastor": 8861,
      "persekutuan": 8862,
      "##put": 8863,
      "indra": 8864,
      "pembebasan": 8865,
      "tamil": 8866,
      "hem": 8867,
      "##gu": 8868,
      "##yam": 8869,
      "##elle": 8870,
      "kebangkitan": 8871,
      "##rogen": 8872,
      "arya": 8873,
      "laksamana": 8874,
      "sekuel": 8875,
      "direktor": 8876,
      "dihancurkan": 8877,
      "##erapan": 8878,
      "komod": 8879,
      "pup": 8880,
      "cle": 8881,
      "##tuanya": 8882,
      "berulang": 8883,
      "kah": 8884,
      "##bach": 8885,
      "begin": 8886,
      "##omyza": 8887,
      "jambi": 8888,
      "tahan": 8889,
      "lazim": 8890,
      "bagaimanapun": 8891,
      "texas": 8892,
      "hebat": 8893,
      "krom": 8894,
      "ming": 8895,
      "legend": 8896,
      "virgin": 8897,
      "konserv": 8898,
      "kambing": 8899,
      "ari": 8900,
      "menyum": 8901,
      "##tens": 8902,
      "petunjuk": 8903,
      "diselesaikan": 8904,
      "beranggotakan": 8905,
      "grav": 8906,
      "##zon": 8907,
      "musikal": 8908,
      "dimakan": 8909,
      "mach": 8910,
      "petualangan": 8911,
      "pont": 8912,
      "perut": 8913,
      "dipas": 8914,
      "disamping": 8915,
      "bertahun": 8916,
      "historis": 8917,
      "##ermin": 8918,
      "##irah": 8919,
      "kontroversi": 8920,
      "kutub": 8921,
      "mud": 8922,
      "##hat": 8923,
      "datar": 8924,
      "penerbitan": 8925,
      "hanyalah": 8926,
      "bani": 8927,
      "eksk": 8928,
      "##inyur": 8929,
      "hitler": 8930,
      "hut": 8931,
      "penasihat": 8932,
      "subjek": 8933,
      "##onakan": 8934,
      "gamp": 8935,
      "mengab": 8936,
      "##ome": 8937,
      "pengaturan": 8938,
      "besarnya": 8939,
      "##ahasa": 8940,
      "carol": 8941,
      "tul": 8942,
      "##onaris": 8943,
      "##odend": 8944,
      "down": 8945,
      "seleksi": 8946,
      "##rie": 8947,
      "tajam": 8948,
      "spe": 8949,
      "##bor": 8950,
      "##anon": 8951,
      "kerangka": 8952,
      "diserang": 8953,
      "##onfirmasi": 8954,
      "ditinggalkan": 8955,
      "khalifah": 8956,
      "open": 8957,
      "##itch": 8958,
      "cik": 8959,
      "bakal": 8960,
      "hang": 8961,
      "berawal": 8962,
      "##imer": 8963,
      "mengisahkan": 8964,
      "daud": 8965,
      "##iji": 8966,
      "dominan": 8967,
      "pemeriksaan": 8968,
      "##elli": 8969,
      "##urah": 8970,
      "ks": 8971,
      "menemui": 8972,
      "tebal": 8973,
      "membebaskan": 8974,
      "pons": 8975,
      "maur": 8976,
      "keterl": 8977,
      "reguler": 8978,
      "keponakan": 8979,
      "##port": 8980,
      "berani": 8981,
      "##onsumsi": 8982,
      "gm": 8983,
      "##olasi": 8984,
      "berdua": 8985,
      "##raft": 8986,
      "kakaknya": 8987,
      "dibaca": 8988,
      "##kripsikan": 8989,
      "zhou": 8990,
      "moyang": 8991,
      "gelandang": 8992,
      "##baceae": 8993,
      "konstan": 8994,
      "ster": 8995,
      "maha": 8996,
      "serat": 8997,
      "perlahan": 8998,
      "terakhirnya": 8999,
      "mengapa": 9000,
      "bint": 9001,
      "jumat": 9002,
      "prusia": 9003,
      "penampilannya": 9004,
      "harv": 9005,
      "meyak": 9006,
      "##migran": 9007,
      "lakukan": 9008,
      "gram": 9009,
      "fabaceae": 9010,
      "ditandatangani": 9011,
      "berlayar": 9012,
      "mengajak": 9013,
      "chel": 9014,
      "##istribusikan": 9015,
      "##inia": 9016,
      "kuba": 9017,
      "marc": 9018,
      "perbuatan": 9019,
      "cetak": 9020,
      "##antang": 9021,
      "foot": 9022,
      "keadilan": 9023,
      "##abad": 9024,
      "persyar": 9025,
      "ericales": 9026,
      "apostolik": 9027,
      "rog": 9028,
      "1928": 9029,
      "pembaca": 9030,
      "bid": 9031,
      "##ando": 9032,
      "riwayat": 9033,
      "##kol": 9034,
      "dibebaskan": 9035,
      "radiasi": 9036,
      "karenanya": 9037,
      "teor": 9038,
      "robot": 9039,
      "##olia": 9040,
      "camb": 9041,
      "pendatang": 9042,
      "cedera": 9043,
      "##usa": 9044,
      "kinerja": 9045,
      "ketat": 9046,
      "insinyur": 9047,
      "white": 9048,
      "orde": 9049,
      "##askar": 9050,
      "electr": 9051,
      "##zidae": 9052,
      "mengancam": 9053,
      "##okol": 9054,
      "##opia": 9055,
      "kebangsaan": 9056,
      "##angkutan": 9057,
      "##fo": 9058,
      "disampaikan": 9059,
      "telek": 9060,
      "karangan": 9061,
      "md": 9062,
      "##sial": 9063,
      "##edar": 9064,
      "tukang": 9065,
      "lest": 9066,
      "ferr": 9067,
      "##alanya": 9068,
      "spor": 9069,
      "amir": 9070,
      "alamat": 9071,
      "williams": 9072,
      "massal": 9073,
      "dinilai": 9074,
      "1929": 9075,
      "##ats": 9076,
      "pinjaman": 9077,
      "kle": 9078,
      "##angkal": 9079,
      "kedalaman": 9080,
      "kamboja": 9081,
      "##artikan": 9082,
      "dipaksa": 9083,
      "##lamasi": 9084,
      "dap": 9085,
      "tipula": 9086,
      "menyebarkan": 9087,
      "nasib": 9088,
      "brah": 9089,
      "penjelajah": 9090,
      "friedrich": 9091,
      "gong": 9092,
      "hindi": 9093,
      "##tek": 9094,
      "sentral": 9095,
      "apple": 9096,
      "gund": 9097,
      "kekasih": 9098,
      "coun": 9099,
      "techn": 9100,
      "sayangnya": 9101,
      "jab": 9102,
      "yug": 9103,
      "##arkas": 9104,
      "mitos": 9105,
      "zi": 9106,
      "##hy": 9107,
      "sens": 9108,
      "glen": 9109,
      "rer": 9110,
      "##als": 9111,
      "natur": 9112,
      "night": 9113,
      "170": 9114,
      "##ijen": 9115,
      "##ason": 9116,
      "bursa": 9117,
      "minat": 9118,
      "bond": 9119,
      "##gy": 9120,
      "##yai": 9121,
      "emosi": 9122,
      "padahal": 9123,
      "menginginkan": 9124,
      "dicetak": 9125,
      "liberal": 9126,
      "hun": 9127,
      "jes": 9128,
      "##ilin": 9129,
      "misionaris": 9130,
      "##ido": 9131,
      "kans": 9132,
      "##sy": 9133,
      "laga": 9134,
      "##ohonan": 9135,
      "ww": 9136,
      "penyerang": 9137,
      "perkotaan": 9138,
      "spong": 9139,
      "tipis": 9140,
      "bertarung": 9141,
      "jenjang": 9142,
      "tag": 9143,
      "##iminasi": 9144,
      "america": 9145,
      "##adwalkan": 9146,
      "gemb": 9147,
      "##bin": 9148,
      "pk": 9149,
      "arkeologi": 9150,
      "melancarkan": 9151,
      "rutin": 9152,
      "##untungkan": 9153,
      "hok": 9154,
      "##lop": 9155,
      "gud": 9156,
      "didominasi": 9157,
      "mempersiapkan": 9158,
      "110": 9159,
      "##tat": 9160,
      "island": 9161,
      "hilir": 9162,
      "get": 9163,
      "##iaman": 9164,
      "soeharto": 9165,
      "pasang": 9166,
      "sumur": 9167,
      "alias": 9168,
      "##ime": 9169,
      "fabales": 9170,
      "seleb": 9171,
      "pengembang": 9172,
      "soal": 9173,
      "##eau": 9174,
      "cro": 9175,
      "rumpun": 9176,
      "##imbangkan": 9177,
      "belahan": 9178,
      "##ric": 9179,
      "##san": 9180,
      "ala": 9181,
      "##pres": 9182,
      "bambang": 9183,
      "toba": 9184,
      "sabtu": 9185,
      "##bat": 9186,
      "##tipe": 9187,
      "##ots": 9188,
      "##ote": 9189,
      "elektro": 9190,
      "respon": 9191,
      "heter": 9192,
      "penaklukan": 9193,
      "diatas": 9194,
      "fern": 9195,
      "berup": 9196,
      "demonstr": 9197,
      "samudera": 9198,
      "tibet": 9199,
      "persyaratan": 9200,
      "keman": 9201,
      "##rin": 9202,
      "##zen": 9203,
      "prabu": 9204,
      "kelamin": 9205,
      "diperankan": 9206,
      "sehat": 9207,
      "truk": 9208,
      "ponsel": 9209,
      "nasa": 9210,
      "marinir": 9211,
      "sia": 9212,
      "##buan": 9213,
      "membant": 9214,
      "nug": 9215,
      "penerim": 9216,
      "rombongan": 9217,
      "ms": 9218,
      "penila": 9219,
      "ted": 9220,
      "rab": 9221,
      "cab": 9222,
      "kediaman": 9223,
      "##olakan": 9224,
      "berked": 9225,
      "ekonom": 9226,
      "dihentikan": 9227,
      "##odes": 9228,
      "##atuhkan": 9229,
      "##esco": 9230,
      "perform": 9231,
      "##back": 9232,
      "jamur": 9233,
      "##zan": 9234,
      "1919": 9235,
      "##dian": 9236,
      "temper": 9237,
      "andre": 9238,
      "dolar": 9239,
      "##enuhi": 9240,
      "##elia": 9241,
      "mengkr": 9242,
      "##ancuran": 9243,
      "brown": 9244,
      "amal": 9245,
      "marx": 9246,
      "umar": 9247,
      "berupaya": 9248,
      "plus": 9249,
      "pengep": 9250,
      "yi": 9251,
      "senin": 9252,
      "##akau": 9253,
      "##lusif": 9254,
      "mengundang": 9255,
      "unggulan": 9256,
      "rach": 9257,
      "sungg": 9258,
      "home": 9259,
      "lud": 9260,
      "menyaksikan": 9261,
      "##ware": 9262,
      "##elai": 9263,
      "##ebatan": 9264,
      "pengolahan": 9265,
      "corn": 9266,
      "rc": 9267,
      "statistik": 9268,
      "1934": 9269,
      "kudeta": 9270,
      "diplomatik": 9271,
      "hier": 9272,
      "cokelat": 9273,
      "otonomi": 9274,
      "pengir": 9275,
      "http": 9276,
      "1914": 9277,
      "mobile": 9278,
      "didefinisikan": 9279,
      "##sedur": 9280,
      "agromyzidae": 9281,
      "memberitahu": 9282,
      "##aktor": 9283,
      "obser": 9284,
      "kepa": 9285,
      "dibatasi": 9286,
      "##ters": 9287,
      "batik": 9288,
      "undangan": 9289,
      "cair": 9290,
      "sakti": 9291,
      "championship": 9292,
      "oliv": 9293,
      "tawaran": 9294,
      "##rain": 9295,
      "habitat": 9296,
      "hawaii": 9297,
      "bekasi": 9298,
      "rohani": 9299,
      "ler": 9300,
      "##mond": 9301,
      "prosedur": 9302,
      "##ambatan": 9303,
      "subur": 9304,
      "##well": 9305,
      "##eno": 9306,
      "berga": 9307,
      "kolom": 9308,
      "##iew": 9309,
      "##ehan": 9310,
      "dibawakan": 9311,
      "favorit": 9312,
      "##ukakan": 9313,
      "berbun": 9314,
      "hij": 9315,
      "malik": 9316,
      "gurun": 9317,
      "menembak": 9318,
      "solusi": 9319,
      "selaku": 9320,
      "dipec": 9321,
      "intelek": 9322,
      "##olas": 9323,
      "segmen": 9324,
      "alumni": 9325,
      "mall": 9326,
      "seluruhnya": 9327,
      "hubungannya": 9328,
      "ale": 9329,
      "sex": 9330,
      "kewajiban": 9331,
      "dibeli": 9332,
      "keahlian": 9333,
      "lengan": 9334,
      "##angkau": 9335,
      "nah": 9336,
      "myrt": 9337,
      "##umber": 9338,
      "##enting": 9339,
      "bermarkas": 9340,
      "prix": 9341,
      "maksimum": 9342,
      "jejak": 9343,
      "pc": 9344,
      "penyedia": 9345,
      "ayahandanya": 9346,
      "##ution": 9347,
      "ford": 9348,
      "##ose": 9349,
      "editor": 9350,
      "prok": 9351,
      "125": 9352,
      "##ophia": 9353,
      "siti": 9354,
      "##asemen": 9355,
      "menyarankan": 9356,
      "peternakan": 9357,
      "penilaian": 9358,
      "##track": 9359,
      "##irman": 9360,
      "##etail": 9361,
      "1932": 9362,
      "beban": 9363,
      "series": 9364,
      "jones": 9365,
      "orig": 9366,
      "petrus": 9367,
      "bbc": 9368,
      "inisi": 9369,
      "disiplin": 9370,
      "fosil": 9371,
      "turunan": 9372,
      "bik": 9373,
      "##ikkan": 9374,
      "france": 9375,
      "berpas": 9376,
      "mengganggu": 9377,
      "manfaat": 9378,
      "##erp": 9379,
      "fred": 9380,
[...]
